{
  "version": "1.0",
  "truncation": null,
  "padding": null,
  "added_tokens": [
    {
      "id": 0,
      "content": "<s>",
      "single_word": false,
      "lstrip": false,
      "rstrip": false,
      "normalized": false,
      "special": true
    },
    {
      "id": 1,
      "content": "<pad>",
      "single_word": false,
      "lstrip": false,
      "rstrip": false,
      "normalized": false,
      "special": true
    },
    {
      "id": 2,
      "content": "</s>",
      "single_word": false,
      "lstrip": false,
      "rstrip": false,
      "normalized": false,
      "special": true
    }
  ],
  "normalizer": {
    "type": "NFKC"
  },
  "pre_tokenizer": {
    "type": "Metaspace",
    "replacement": "▁",
    "add_prefix_space": true
  },
  "post_processor": null,
  "decoder": {
    "type": "Metaspace",
    "replacement": "▁",
    "add_prefix_space": true
  },
  "model": {
    "type": "BPE",
    "dropout": null,
    "unk_token": "<unk>",
    "continuing_subword_prefix": null,
    "end_of_word_suffix": null,
    "fuse_unk": false,
    "byte_fallback": false,
    "vocab": {
      "<s>": 0,
      "<pad>": 1,
      "</s>": 2,
      "\n": 3,
      "!": 4,
      "\"": 5,
      "#": 6,
      "$": 7,
      "%": 8,
      "&": 9,
      "'": 10,
      "(": 11,
      ")": 12,
      "*": 13,
      "+": 14,
      ",": 15,
      "-": 16,
      ".": 17,
      "/": 18,
      "0": 19,
      "1": 20,
      "2": 21,
      "3": 22,
      "4": 23,
      "5": 24,
      "6": 25,
      "7": 26,
      "8": 27,
      "9": 28,
      ":": 29,
      ";": 30,
      "=": 31,
      ">": 32,
      "?": 33,
      "@": 34,
      "[": 35,
      "\\": 36,
      "]": 37,
      "_": 38,
      "`": 39,
      "a": 40,
      "b": 41,
      "c": 42,
      "d": 43,
      "e": 44,
      "f": 45,
      "g": 46,
      "h": 47,
      "i": 48,
      "j": 49,
      "k": 50,
      "l": 51,
      "m": 52,
      "n": 53,
      "o": 54,
      "p": 55,
      "q": 56,
      "r": 57,
      "s": 58,
      "t": 59,
      "u": 60,
      "v": 61,
      "w": 62,
      "x": 63,
      "y": 64,
      "z": 65,
      "▁": 66,
      "▁a": 67,
      "in": 68,
      "▁t": 69,
      "▁s": 70,
      "▁o": 71,
      "ing": 72,
      "▁b": 73,
      "it": 74,
      "▁w": 75,
      "he": 76,
      "▁p": 77,
      "an": 78,
      "re": 79,
      "▁c": 80,
      "le": 81,
      "▁on": 82,
      "er": 83,
      "▁the": 84,
      "at": 85,
      "▁of": 86,
      "▁in": 87,
      "▁an": 88,
      "ar": 89,
      "ro": 90,
      "▁f": 91,
      "is": 92,
      "▁m": 93,
      "▁wit": 94,
      "▁with": 95,
      "▁h": 96,
      "▁d": 97,
      "▁g": 98,
      "▁and": 99,
      "▁l": 100,
      "al": 101,
      "en": 102,
      "▁to": 103,
      "▁st": 104,
      "om": 105,
      "ra": 106,
      "ding": 107,
      "es": 108,
      "on": 109,
      "ck": 110,
      "ed": 111,
      "ow": 112,
      "▁is": 113,
      "or": 114,
      "et": 115,
      "un": 116,
      "la": 117,
      "ir": 118,
      "▁man": 119,
      "▁n": 120,
      "as": 121,
      "op": 122,
      "ting": 123,
      "▁sit": 124,
      "all": 125,
      "ch": 126,
      "up": 127,
      "ri": 128,
      "oo": 129,
      "▁ne": 130,
      "il": 131,
      "▁th": 132,
      "el": 133,
      "ot": 134,
      "ut": 135,
      "▁wh": 136,
      "id": 137,
      "ur": 138,
      "▁stan": 139,
      "▁sitting": 140,
      "ol": 141,
      "ge": 142,
      "ers": 143,
      "▁are": 144,
      "▁tw": 145,
      "ic": 146,
      "▁two": 147,
      "us": 148,
      "ard": 149,
      "ab": 150,
      "▁at": 151,
      "ite": 152,
      "king": 153,
      "ig": 154,
      "▁pe": 155,
      "▁co": 156,
      "her": 157,
      "▁e": 158,
      "▁be": 159,
      "▁sk": 160,
      "ss": 161,
      "▁re": 162,
      "ying": 163,
      "▁standing": 164,
      "▁peop": 165,
      "▁people": 166,
      "▁tra": 167,
      "ide": 168,
      "eb": 169,
      "▁ro": 170,
      "▁wom": 171,
      "oard": 172,
      "ad": 173,
      "xt": 174,
      "▁v": 175,
      "able": 176,
      "▁k": 177,
      "▁next": 178,
      "▁do": 179,
      "▁white": 180,
      "▁pla": 181,
      "lo": 182,
      "▁woman": 183,
      "▁it": 184,
      "ile": 185,
      "ff": 186,
      "▁hol": 187,
      "▁stre": 188,
      "▁table": 189,
      "▁pl": 190,
      "und": 191,
      "▁street": 192,
      "ome": 193,
      "▁fi": 194,
      "▁fro": 195,
      "ood": 196,
      "▁bo": 197,
      "ve": 198,
      "ver": 199,
      "▁that": 200,
      "▁y": 201,
      "▁ri": 202,
      "▁holding": 203,
      "▁par": 204,
      "ce": 205,
      "▁gro": 206,
      "▁sh": 207,
      "▁some": 208,
      "▁la": 209,
      "▁top": 210,
      "own": 211,
      "▁ch": 212,
      "▁gra": 213,
      "▁sm": 214,
      "ate": 215,
      "▁pers": 216,
      "▁person": 217,
      "nt": 218,
      "▁bat": 219,
      "▁lar": 220,
      "▁large": 221,
      "ant": 222,
      "oun": 223,
      "▁down": 224,
      "▁cat": 225,
      "um": 226,
      "▁wat": 227,
      "and": 228,
      "am": 229,
      "che": 230,
      "▁clo": 231,
      "▁pi": 232,
      "▁up": 233,
      "▁group": 234,
      "▁fl": 235,
      "eld": 236,
      "ion": 237,
      "ach": 238,
      "▁sn": 239,
      "▁car": 240,
      "▁dog": 241,
      "ul": 242,
      "▁out": 243,
      "▁field": 244,
      "ke": 245,
      "▁near": 246,
      "▁ten": 247,
      "▁snow": 248,
      "se": 249,
      "nis": 250,
      "▁small": 251,
      "▁train": 252,
      "ign": 253,
      "▁tennis": 254,
      "▁bla": 255,
      "▁wal": 256,
      "▁his": 257,
      "▁front": 258,
      "▁black": 259,
      "▁park": 260,
      "ack": 261,
      "▁bus": 262,
      "ree": 263,
      "▁ra": 264,
      "▁bas": 265,
      "▁sur": 266,
      "ug": 267,
      "▁sign": 268,
      "st": 269,
      "ht": 270,
      "room": 271,
      "ure": 272,
      "▁plate": 273,
      "▁room": 274,
      "▁se": 275,
      "row": 276,
      "ind": 277,
      "▁riding": 278,
      "ay": 279,
      "ell": 280,
      "▁bl": 281,
      "▁side": 282,
      "▁grass": 283,
      "▁air": 284,
      "oung": 285,
      "▁kit": 286,
      "▁red": 287,
      "▁ph": 288,
      "▁bu": 289,
      "▁young": 290,
      "▁water": 291,
      "ue": 292,
      "im": 293,
      "▁by": 294,
      "▁loo": 295,
      "round": 296,
      "one": 297,
      "▁surf": 298,
      "ain": 299,
      "ving": 300,
      "▁buil": 301,
      "board": 302,
      "ru": 303,
      "▁bath": 304,
      "ph": 305,
      "eball": 306,
      "▁building": 307,
      "▁baseball": 308,
      "side": 309,
      "ffe": 310,
      "▁bed": 311,
      "reen": 312,
      "red": 313,
      "ink": 314,
      "air": 315,
      "▁has": 316,
      "▁skat": 317,
      "▁play": 318,
      "▁com": 319,
      "ter": 320,
      "▁playing": 321,
      "▁while": 322,
      "pt": 323,
      "▁walking": 324,
      "▁bathroom": 325,
      "▁skateb": 326,
      "▁gi": 327,
      "ight": 328,
      "zz": 329,
      "▁j": 330,
      "yc": 331,
      "▁food": 332,
      "▁for": 333,
      "ds": 334,
      "▁hor": 335,
      "▁her": 336,
      "▁blue": 337,
      "▁pizz": 338,
      "ct": 339,
      "▁po": 340,
      "▁ot": 341,
      "chen": 342,
      "▁kitchen": 343,
      "aring": 344,
      "ycle": 345,
      "▁other": 346,
      "▁mot": 347,
      "▁back": 348,
      "▁skateboard": 349,
      "▁wood": 350,
      "▁green": 351,
      "age": 352,
      "umb": 353,
      "▁ele": 354,
      "▁there": 355,
      "irt": 356,
      "▁gira": 357,
      "▁pizza": 358,
      "▁li": 359,
      "▁boy": 360,
      "▁parked": 361,
      "ie": 362,
      "▁ball": 363,
      "▁looking": 364,
      "▁ski": 365,
      "▁motor": 366,
      "▁he": 367,
      "▁z": 368,
      "ugh": 369,
      "ran": 370,
      "ture": 371,
      "▁le": 372,
      "▁ben": 373,
      "tle": 374,
      "▁over": 375,
      "ity": 376,
      "▁we": 377,
      "get": 378,
      "▁beach": 379,
      "▁eat": 380,
      "▁toile": 381,
      "▁clock": 382,
      "▁toilet": 383,
      "▁bear": 384,
      "▁pic": 385,
      "▁ca": 386,
      "▁coup": 387,
      "irl": 388,
      "phant": 389,
      "ep": 390,
      "▁des": 391,
      "▁elephant": 392,
      "▁couple": 393,
      "▁girl": 394,
      "▁wa": 395,
      "▁three": 396,
      "▁comp": 397,
      "▁men": 398,
      "rel": 399,
      "▁road": 400,
      "▁con": 401,
      "ame": 402,
      "ent": 403,
      "ild": 404,
      "pp": 405,
      "ane": 406,
      "▁picture": 407,
      "led": 408,
      "▁city": 409,
      "rella": 410,
      "▁umb": 411,
      "▁dis": 412,
      "▁motorc": 413,
      "▁umbrella": 414,
      "▁she": 415,
      "▁flying": 416,
      "cks": 417,
      "lass": 418,
      "▁tow": 419,
      "▁wearing": 420,
      "ris": 421,
      "▁board": 422,
      "▁al": 423,
      "dy": 424,
      "▁sl": 425,
      "▁lapt": 426,
      "▁motorcycle": 427,
      "▁laptop": 428,
      "▁player": 429,
      "▁wind": 430,
      "ous": 431,
      "ee": 432,
      "ub": 433,
      "▁game": 434,
      "ine": 435,
      "ill": 436,
      "▁sever": 437,
      "▁several": 438,
      "ebra": 439,
      "▁zebra": 440,
      "▁pas": 441,
      "▁child": 442,
      "▁comput": 443,
      "ong": 444,
      "▁from": 445,
      "▁laying": 446,
      "▁sits": 447,
      "ld": 448,
      "▁as": 449,
      "tain": 450,
      "▁sand": 451,
      "▁wooden": 452,
      "▁bench": 453,
      "rown": 454,
      "▁int": 455,
      "▁window": 456,
      "▁r": 457,
      "▁sink": 458,
      "rough": 459,
      "▁glass": 460,
      "▁area": 461,
      "ks": 462,
      "▁airp": 463,
      "▁one": 464,
      "▁their": 465,
      "▁through": 466,
      "▁boat": 467,
      "▁wall": 468,
      "▁chair": 469,
      "▁brown": 470,
      "pen": 471,
      "▁tru": 472,
      "▁around": 473,
      "▁horse": 474,
      "ellow": 475,
      "▁fris": 476,
      "▁old": 477,
      "▁frisb": 478,
      "▁yellow": 479,
      "▁eating": 480,
      "▁light": 481,
      "▁sc": 482,
      "▁cake": 483,
      "ase": 484,
      "▁stop": 485,
      "▁hand": 486,
      "▁computer": 487,
      "▁ta": 488,
      "ull": 489,
      "▁phone": 490,
      "▁bir": 491,
      "▁und": 492,
      "oto": 493,
      "▁lit": 494,
      "▁desk": 495,
      "▁photo": 496,
      "▁frisbee": 497,
      "▁giraffe": 498,
      "▁de": 499,
      "▁under": 500,
      "ort": 501,
      "ice": 502,
      "▁open": 503,
      "▁ve": 504,
      "▁close": 505,
      "▁outside": 506,
      "▁fo": 507,
      "▁sp": 508,
      "ery": 509,
      "uit": 510,
      "way": 511,
      "bo": 512,
      "▁living": 513,
      "▁tre": 514,
      "▁fire": 515,
      "▁mo": 516,
      "▁sw": 517,
      "▁truck": 518,
      "cc": 519,
      "▁te": 520,
      "▁flo": 521,
      "▁ban": 522,
      "ross": 523,
      "▁lot": 524,
      "'s": 525,
      "▁surfboard": 526,
      "ag": 527,
      "▁bow": 528,
      "▁col": 529,
      "▁bun": 530,
      "vered": 531,
      "▁di": 532,
      "▁tree": 533,
      "▁bri": 534,
      "▁trees": 535,
      "▁en": 536,
      "ap": 537,
      "▁cow": 538,
      "les": 539,
      "▁coun": 540,
      "▁each": 541,
      "ger": 542,
      "ation": 543,
      "▁covered": 544,
      "▁cour": 545,
      "▁many": 546,
      "ady": 547,
      "▁cell": 548,
      "▁fil": 549,
      "▁banan": 550,
      "qu": 551,
      "▁this": 552,
      "▁very": 553,
      "▁so": 554,
      "▁beh": 555,
      "ses": 556,
      "▁behind": 557,
      "▁suit": 558,
      "▁bowl": 559,
      "▁oran": 560,
      "▁court": 561,
      "▁off": 562,
      "pla": 563,
      "ground": 564,
      "▁filled": 565,
      "▁little": 566,
      "▁sky": 567,
      "ves": 568,
      "▁cut": 569,
      "s,": 570,
      "uch": 571,
      "▁its": 572,
      "▁flow": 573,
      "ump": 574,
      "if": 575,
      "▁show": 576,
      "▁fen": 577,
      "gether": 578,
      "▁together": 579,
      "ction": 580,
      "▁into": 581,
      "eat": 582,
      "▁kite": 583,
      "▁abo": 584,
      "▁sandw": 585,
      "▁rack": 586,
      "iew": 587,
      "ly": 588,
      "ich": 589,
      "▁bi": 590,
      "▁moun": 591,
      "▁run": 592,
      "▁airpl": 593,
      "ush": 594,
      "ets": 595,
      "▁sto": 596,
      "▁background": 597,
      "ors": 598,
      "▁view": 599,
      "▁dri": 600,
      "alk": 601,
      "▁inside": 602,
      "dle": 603,
      "▁ma": 604,
      "▁big": 605,
      "▁shirt": 606,
      "▁skis": 607,
      "▁sheep": 608,
      "ped": 609,
      "▁mir": 610,
      "▁stands": 611,
      "▁mirro": 612,
      "▁app": 613,
      "ry": 614,
      "▁displa": 615,
      "▁pre": 616,
      "▁mirror": 617,
      "▁bunch": 618,
      "walk": 619,
      "dr": 620,
      "▁go": 621,
      "▁couch": 622,
      "▁bird": 623,
      "▁hot": 624,
      "▁oce": 625,
      "▁ocean": 626,
      "▁hy": 627,
      "▁pie": 628,
      "ts": 629,
      "ffic": 630,
      "▁counter": 631,
      "do": 632,
      "drant": 633,
      "▁traffic": 634,
      "rent": 635,
      "▁hydrant": 636,
      "▁veget": 637,
      "▁mid": 638,
      "▁swing": 639,
      "▁fence": 640,
      "▁ted": 641,
      "▁airplane": 642,
      "▁teddy": 643,
      "orm": 644,
      "▁display": 645,
      "▁floor": 646,
      "▁sandwich": 647,
      "uff": 648,
      "▁orange": 649,
      "▁che": 650,
      "▁ref": 651,
      "▁hill": 652,
      "ches": 653,
      "▁vegetable": 654,
      "▁wi": 655,
      "▁women": 656,
      "ching": 657,
      "other": 658,
      "▁head": 659,
      "ang": 660,
      "fferent": 661,
      "▁dirt": 662,
      "▁different": 663,
      "▁sidewalk": 664,
      "sing": 665,
      "▁anim": 666,
      "▁another": 667,
      "ment": 668,
      "ted": 669,
      "▁tri": 670,
      "ner": 671,
      "ies": 672,
      "▁animal": 673,
      "▁mountain": 674,
      "▁stand": 675,
      "▁wave": 676,
      "ress": 677,
      "▁fe": 678,
      "▁plane": 679,
      "▁tower": 680,
      "iling": 681,
      "▁tall": 682,
      "mp": 683,
      "▁jump": 684,
      "▁flowers": 685,
      "ruit": 686,
      "▁met": 687,
      "▁tracks": 688,
      "▁parking": 689,
      "ouse": 690,
      "▁bab": 691,
      "ook": 692,
      "▁horses": 693,
      "▁giraff": 694,
      "▁fruit": 695,
      "▁bro": 696,
      "▁vase": 697,
      "▁giraffes": 698,
      "etting": 699,
      "▁plat": 700,
      "▁hit": 701,
      "▁along": 702,
      "▁sa": 703,
      "▁im": 704,
      "ace": 705,
      "▁baby": 706,
      "▁racket": 707,
      "▁cars": 708,
      "▁day": 709,
      "ip": 710,
      "▁ar": 711,
      "▁ground": 712,
      "▁tie": 713,
      "▁sun": 714,
      "▁bot": 715,
      "ugg": 716,
      "ren": 717,
      "▁us": 718,
      "▁rid": 719,
      "▁grassy": 720,
      "▁graz": 721,
      "vel": 722,
      "▁being": 723,
      "▁full": 724,
      "ket": 725,
      "▁snowboard": 726,
      "te": 727,
      "▁zebras": 728,
      "▁hang": 729,
      "▁stuff": 730,
      "▁rest": 731,
      "▁elephants": 732,
      "▁station": 733,
      "▁gu": 734,
      "ey": 735,
      "▁bananas": 736,
      "▁dr": 737,
      "▁slop": 738,
      "▁vegetables": 739,
      "uring": 740,
      "ari": 741,
      "▁middle": 742,
      "▁un": 743,
      "ated": 744,
      "hing": 745,
      "kes": 746,
      "▁ha": 747,
      "ven": 748,
      "▁cl": 749,
      "ick": 750,
      "▁ad": 751,
      "▁cup": 752,
      "▁dress": 753,
      "▁ready": 754,
      "▁image": 755,
      "rying": 756,
      "hes": 757,
      "▁pro": 758,
      "ac": 759,
      "igh": 760,
      "▁taking": 761,
      "▁four": 762,
      "▁vari": 763,
      "urn": 764,
      "▁cam": 765,
      "▁box": 766,
      "▁cor": 767,
      "▁hat": 768,
      "▁crow": 769,
      "▁bes": 770,
      "ator": 771,
      "▁bike": 772,
      "▁them": 773,
      "ult": 774,
      "▁lo": 775,
      "▁signs": 776,
      "▁driving": 777,
      "▁stuffed": 778,
      "▁slope": 779,
      "▁cross": 780,
      "oli": 781,
      "rol": 782,
      "▁crowd": 783,
      "ade": 784,
      "▁ac": 785,
      "▁long": 786,
      "ched": 787,
      "dge": 788,
      "ler": 789,
      "▁piece": 790,
      "▁above": 791,
      "▁pass": 792,
      "▁wine": 793,
      "▁brocc": 794,
      "▁lugg": 795,
      "▁guy": 796,
      "▁wor": 797,
      "▁broccoli": 798,
      "▁luggage": 799,
      "▁cont": 800,
      "▁em": 801,
      "▁grazing": 802,
      "▁across": 803,
      "▁refri": 804,
      "▁beside": 805,
      "ess": 806,
      "▁cows": 807,
      "▁prep": 808,
      "▁skiing": 809,
      "▁kn": 810,
      "▁refriger": 811,
      "▁skate": 812,
      "▁kid": 813,
      "▁travel": 814,
      "▁snowy": 815,
      "▁key": 816,
      "▁fri": 817,
      "▁door": 818,
      "▁wii": 819,
      "▁camer": 820,
      "▁hanging": 821,
      "uts": 822,
      "▁refrigerator": 823,
      "▁during": 824,
      "▁bic": 825,
      "cor": 826,
      "iting": 827,
      "▁don": 828,
      "▁tele": 829,
      "▁color": 830,
      "▁glasses": 831,
      "ms": 832,
      "▁holds": 833,
      "▁cle": 834,
      "der": 835,
      "▁camera": 836,
      "▁bag": 837,
      "▁children": 838,
      "▁pink": 839,
      "▁doub": 840,
      "res": 841,
      "▁doing": 842,
      "▁tal": 843,
      "ust": 844,
      "▁past": 845,
      "▁sho": 846,
      "▁herd": 847,
      "▁rem": 848,
      "ning": 849,
      "ak": 850,
      "▁pair": 851,
      "▁pole": 852,
      "▁keyboard": 853,
      "▁passen": 854,
      "▁pap": 855,
      "ese": 856,
      "▁rac": 857,
      "▁oven": 858,
      "▁decor": 859,
      "▁double": 860,
      "▁buildings": 861,
      "▁empt": 862,
      "▁bicycle": 863,
      "ful": 864,
      "▁ser": 865,
      "▁corner": 866,
      "▁empty": 867,
      "vis": 868,
      "▁per": 869,
      "▁high": 870,
      "▁going": 871,
      "▁control": 872,
      "▁track": 873,
      "▁cab": 874,
      "▁cutting": 875,
      "▁walk": 876,
      "▁who": 877,
      "▁watching": 878,
      "▁mar": 879,
      "▁pot": 880,
      "▁looks": 881,
      "▁stove": 882,
      "▁kites": 883,
      "▁trick": 884,
      "vision": 885,
      "▁umbrellas": 886,
      "▁television": 887,
      "▁me": 888,
      "rush": 889,
      "▁bre": 890,
      "▁jumping": 891,
      "▁bottle": 892,
      "▁smiling": 893,
      "▁cur": 894,
      "▁socc": 895,
      "form": 896,
      "▁soccer": 897,
      "▁din": 898,
      "▁talking": 899,
      "▁ag": 900,
      "▁boats": 901,
      "▁pit": 902,
      "▁posing": 903,
      "▁vide": 904,
      "▁video": 905,
      "▁dogs": 906,
      "▁tv": 907,
      "ten": 908,
      "▁traveling": 909,
      "▁suitc": 910,
      "ght": 911,
      "▁ste": 912,
      "▁airport": 913,
      "▁colorful": 914,
      "▁swinging": 915,
      "▁set": 916,
      "▁remot": 917,
      "▁topped": 918,
      "▁various": 919,
      "▁birds": 920,
      "▁all": 921,
      "ces": 922,
      "▁getting": 923,
      "▁animals": 924,
      "▁using": 925,
      "▁contain": 926,
      "▁lady": 927,
      "▁pain": 928,
      "▁mon": 929,
      "▁body": 930,
      "▁cabin": 931,
      "▁night": 932,
      "▁pat": 933,
      "▁plates": 934,
      "▁paper": 935,
      "ping": 936,
      "pe": 937,
      "▁home": 938,
      "▁again": 939,
      "▁fore": 940,
      "▁can": 941,
      "▁against": 942,
      "▁rail": 943,
      "▁chairs": 944,
      "oth": 945,
      "quet": 946,
      "ft": 947,
      "▁bar": 948,
      "▁brick": 949,
      "leep": 950,
      "▁throw": 951,
      "▁banana": 952,
      "▁coffe": 953,
      "ast": 954,
      "▁meat": 955,
      "▁deck": 956,
      "▁som": 957,
      "arding": 958,
      "▁river": 959,
      "▁jet": 960,
      "▁coffee": 961,
      "ud": 962,
      "▁ite": 963,
      "▁cheese": 964,
      "▁him": 965,
      "▁carrying": 966,
      "▁lea": 967,
      "ian": 968,
      "cher": 969,
      "▁lots": 970,
      "▁pol": 971,
      "aur": 972,
      "▁someone": 973,
      "▁tray": 974,
      "▁motorcycles": 975,
      "▁somet": 976,
      "▁pull": 977,
      "▁pan": 978,
      "▁something": 979,
      "▁house": 980,
      "▁bedroom": 981,
      "aurant": 982,
      "▁restaurant": 983,
      "▁drink": 984,
      "▁waiting": 985,
      "iss": 986,
      "ored": 987,
      "▁it's": 988,
      "▁lin": 989,
      "▁bears": 990,
      "▁row": 991,
      "gg": 992,
      "▁players": 993,
      "▁shel": 994,
      "▁or": 995,
      "ool": 996,
      "▁remote": 997,
      "▁boo": 998,
      "uth": 999,
      "▁metal": 1000,
      "▁shower": 1001,
      "clo": 1002,
      "▁lights": 1003,
      "est": 1004,
      "▁plant": 1005,
      "alf": 1006,
      "ato": 1007,
      "▁skateboarder": 1008,
      "▁face": 1009,
      "ced": 1010,
      "▁sleep": 1011,
      "▁runway": 1012,
      "▁racquet": 1013,
      "▁outdo": 1014,
      "▁about": 1015,
      "▁tile": 1016,
      "▁carro": 1017,
      "▁skier": 1018,
      "▁ramp": 1019,
      "clos": 1020,
      "▁toy": 1021,
      "▁running": 1022,
      "ark": 1023,
      "ave": 1024,
      "▁res": 1025,
      "erse": 1026,
      "▁dough": 1027,
      "▁items": 1028,
      "▁enclos": 1029,
      "▁slic": 1030,
      "▁book": 1031,
      "▁surfer": 1032,
      "▁busy": 1033,
      "▁clou": 1034,
      "▁mic": 1035,
      "▁pile": 1036,
      "▁line": 1037,
      "ial": 1038,
      "ases": 1039,
      "▁interse": 1040,
      "▁att": 1041,
      "▁rain": 1042,
      "gra": 1043,
      "▁screen": 1044,
      "▁pur": 1045,
      "▁hands": 1046,
      "▁hel": 1047,
      "▁passenger": 1048,
      "▁intersection": 1049,
      "▁lying": 1050,
      "▁sil": 1051,
      "are": 1052,
      "▁mouth": 1053,
      "▁ce": 1054,
      "ty": 1055,
      "▁dressed": 1056,
      "▁monit": 1057,
      "▁male": 1058,
      "▁doughn": 1059,
      "▁toward": 1060,
      "▁seat": 1061,
      "▁am": 1062,
      "arm": 1063,
      "▁store": 1064,
      "▁half": 1065,
      "▁surfing": 1066,
      "▁like": 1067,
      "▁gre": 1068,
      "▁whe": 1069,
      "▁lean": 1070,
      "▁photogra": 1071,
      "▁numb": 1072,
      "▁rock": 1073,
      "▁suitcase": 1074,
      "we": 1075,
      "▁no": 1076,
      "▁slice": 1077,
      "▁tub": 1078,
      "ple": 1079,
      "ges": 1080,
      "raw": 1081,
      "▁shown": 1082,
      "▁decker": 1083,
      "▁batter": 1084,
      "▁brush": 1085,
      "▁dark": 1086,
      "ones": 1087,
      "▁jack": 1088,
      "ife": 1089,
      "▁preparing": 1090,
      "▁sciss": 1091,
      "ive": 1092,
      "uce": 1093,
      "phone": 1094,
      "▁rides": 1095,
      "▁made": 1096,
      "hic": 1097,
      "▁look": 1098,
      "▁gray": 1099,
      "▁pulling": 1100,
      "▁vehic": 1101,
      "▁surround": 1102,
      "to": 1103,
      "▁ty": 1104,
      "▁bridge": 1105,
      "▁silver": 1106,
      "▁mat": 1107,
      "▁sleeping": 1108,
      "cl": 1109,
      "▁zoo": 1110,
      "art": 1111,
      "gs": 1112,
      "▁way": 1113,
      "ading": 1114,
      "▁tooth": 1115,
      "▁post": 1116,
      "▁microw": 1117,
      "col": 1118,
      "ny": 1119,
      "▁enclosure": 1120,
      "▁number": 1121,
      "ating": 1122,
      "▁controller": 1123,
      "iz": 1124,
      "▁kids": 1125,
      "▁bet": 1126,
      "▁hair": 1127,
      "▁donuts": 1128,
      "sh": 1129,
      "▁surrounded": 1130,
      "▁knife": 1131,
      "ather": 1132,
      "▁mult": 1133,
      "ween": 1134,
      "▁showing": 1135,
      "▁scissors": 1136,
      "▁forest": 1137,
      "▁between": 1138,
      "ond": 1139,
      "▁microwave": 1140,
      "ear": 1141,
      "ron": 1142,
      "▁clean": 1143,
      "▁adult": 1144,
      "▁colored": 1145,
      "▁bright": 1146,
      "▁jacket": 1147,
      "▁meal": 1148,
      "▁photograph": 1149,
      "▁bread": 1150,
      "ale": 1151,
      "▁decorated": 1152,
      "ooking": 1153,
      "▁sal": 1154,
      "▁lake": 1155,
      "▁few": 1156,
      "▁pill": 1157,
      "eath": 1158,
      "iform": 1159,
      "▁uniform": 1160,
      "ect": 1161,
      "▁mouse": 1162,
      "▁lined": 1163,
      "ash": 1164,
      "elf": 1165,
      "ll": 1166,
      "▁buses": 1167,
      "ved": 1168,
      "▁count": 1169,
      "pes": 1170,
      "▁scen": 1171,
      "▁blan": 1172,
      "▁walks": 1173,
      "▁older": 1174,
      "▁boys": 1175,
      "▁skiers": 1176,
      "▁stat": 1177,
      "ached": 1178,
      "anes": 1179,
      "▁furn": 1180,
      "▁purple": 1181,
      "▁cand": 1182,
      "iture": 1183,
      "▁bran": 1184,
      "▁furniture": 1185,
      "ries": 1186,
      "▁oranges": 1187,
      "ime": 1188,
      "▁ex": 1189,
      "▁grey": 1190,
      "▁\"": 1191,
      "▁girls": 1192,
      "▁outdoor": 1193,
      "▁books": 1194,
      "▁dock": 1195,
      "ans": 1196,
      "▁stick": 1197,
      "▁stri": 1198,
      "lic": 1199,
      "▁cho": 1200,
      "ser": 1201,
      "▁ho": 1202,
      "▁monitor": 1203,
      "▁dish": 1204,
      "▁shop": 1205,
      "▁pick": 1206,
      "▁have": 1207,
      "▁waves": 1208,
      "▁pillow": 1209,
      "▁cloudy": 1210,
      "▁comm": 1211,
      "▁coming": 1212,
      "▁displayed": 1213,
      "atoes": 1214,
      "▁attached": 1215,
      "▁fork": 1216,
      "▁incl": 1217,
      "▁fla": 1218,
      "old": 1219,
      "pped": 1220,
      "▁throwing": 1221,
      "▁chocol": 1222,
      "day": 1223,
      "▁cabinets": 1224,
      "▁eng": 1225,
      "▁chocolate": 1226,
      "▁leaning": 1227,
      "▁making": 1228,
      "▁fem": 1229,
      "▁onto": 1230,
      "▁ob": 1231,
      "oon": 1232,
      "met": 1233,
      "▁crossing": 1234,
      "ily": 1235,
      "inking": 1236,
      "▁ass": 1237,
      "▁salad": 1238,
      "▁shelf": 1239,
      "▁scene": 1240,
      "▁dining": 1241,
      "ish": 1242,
      "▁elect": 1243,
      "▁perform": 1244,
      "▁cook": 1245,
      "ings": 1246,
      "▁stone": 1247,
      "▁painted": 1248,
      "ance": 1249,
      "▁rocks": 1250,
      "▁windows": 1251,
      "ble": 1252,
      "▁birt": 1253,
      "▁birth": 1254,
      "▁pen": 1255,
      "▁drinking": 1256,
      "de": 1257,
      "▁market": 1258,
      "by": 1259,
      "▁meter": 1260,
      "▁cats": 1261,
      "▁seen": 1262,
      "▁birthday": 1263,
      "▁lush": 1264,
      "▁hitting": 1265,
      "▁ed": 1266,
      "▁apples": 1267,
      "▁pub": 1268,
      "▁basket": 1269,
      "▁bea": 1270,
      "▁turn": 1271,
      "▁work": 1272,
      "▁watch": 1273,
      "▁office": 1274,
      "▁towards": 1275,
      "▁lamp": 1276,
      "▁resting": 1277,
      "▁female": 1278,
      "int": 1279,
      "ken": 1280,
      "▁public": 1281,
      "▁flower": 1282,
      "▁clear": 1283,
      "▁pa": 1284,
      "▁country": 1285,
      "▁apple": 1286,
      "▁beaut": 1287,
      "els": 1288,
      "▁plast": 1289,
      "▁sunny": 1290,
      "▁blanket": 1291,
      "eth": 1292,
      "▁lay": 1293,
      "▁setting": 1294,
      "ary": 1295,
      "ire": 1296,
      "▁clot": 1297,
      "▁carrots": 1298,
      "aching": 1299,
      "▁fries": 1300,
      "▁beautif": 1301,
      "▁plastic": 1302,
      "▁fruits": 1303,
      "jo": 1304,
      "oot": 1305,
      "▁walls": 1306,
      "▁catch": 1307,
      "ents": 1308,
      "▁stopped": 1309,
      "▁leaves": 1310,
      "▁been": 1311,
      "▁edge": 1312,
      "▁not": 1313,
      "▁donut": 1314,
      "▁shot": 1315,
      "▁part": 1316,
      "▁catcher": 1317,
      "▁surfboards": 1318,
      "▁moving": 1319,
      "less": 1320,
      "▁tom": 1321,
      "▁pictures": 1322,
      "▁teeth": 1323,
      "▁enjo": 1324,
      "sp": 1325,
      "▁bikes": 1326,
      "▁helmet": 1327,
      "▁assort": 1328,
      "▁squ": 1329,
      "▁police": 1330,
      "▁beautiful": 1331,
      "▁stack": 1332,
      "▁statue": 1333,
      "▁platform": 1334,
      "resh": 1335,
      "▁mountains": 1336,
      "▁path": 1337,
      "▁working": 1338,
      "▁short": 1339,
      "▁snowboarder": 1340,
      "▁fresh": 1341,
      "▁toothb": 1342,
      "lection": 1343,
      "▁tables": 1344,
      "▁smile": 1345,
      "▁ride": 1346,
      "▁undern": 1347,
      "▁ur": 1348,
      "▁trying": 1349,
      "▁sub": 1350,
      "▁slices": 1351,
      "▁underneath": 1352,
      "▁branch": 1353,
      "▁yard": 1354,
      "▁cre": 1355,
      "ety": 1356,
      "▁bel": 1357,
      "▁prepa": 1358,
      "▁cart": 1359,
      "▁dist": 1360,
      "▁topping": 1361,
      "▁base": 1362,
      "tered": 1363,
      "▁af": 1364,
      "▁lap": 1365,
      "▁sink,": 1366,
      "▁time": 1367,
      "hed": 1368,
      "▁shap": 1369,
      "hered": 1370,
      "▁sing": 1371,
      "▁but": 1372,
      "ally": 1373,
      "▁wild": 1374,
      "ars": 1375,
      "▁fam": 1376,
      "len": 1377,
      "▁pieces": 1378,
      "▁carri": 1379,
      "▁van": 1380,
      "▁computers": 1381,
      "▁having": 1382,
      "▁placed": 1383,
      "▁wet": 1384,
      "▁nice": 1385,
      "oarding": 1386,
      "▁fac": 1387,
      "▁mil": 1388,
      "▁perched": 1389,
      "▁shows": 1390,
      "▁pitcher": 1391,
      "inal": 1392,
      "▁dire": 1393,
      "▁cellphone": 1394,
      "▁case": 1395,
      "▁skateboarding": 1396,
      "▁new": 1397,
      "▁shore": 1398,
      "run": 1399,
      "▁pitch": 1400,
      "▁draw": 1401,
      "▁gar": 1402,
      "wn": 1403,
      "ca": 1404,
      "▁pepp": 1405,
      "▁passing": 1406,
      "▁appl": 1407,
      "ling": 1408,
      "▁moder": 1409,
      "▁cooking": 1410,
      "gers": 1411,
      "▁sandy": 1412,
      "▁surface": 1413,
      "▁spe": 1414,
      "▁hotel": 1415,
      "▁put": 1416,
      "oll": 1417,
      "▁eaten": 1418,
      "▁dinner": 1419,
      "▁doughnut": 1420,
      "▁modern": 1421,
      "▁they": 1422,
      "ist": 1423,
      "▁vehicle": 1424,
      "top": 1425,
      "▁arm": 1426,
      "▁dry": 1427,
      "▁applian": 1428,
      "▁family": 1429,
      "▁vases": 1430,
      "▁neck": 1431,
      "▁land": 1432,
      "▁beer": 1433,
      "ix": 1434,
      "▁tan": 1435,
      "ric": 1436,
      "▁nin": 1437,
      "▁types": 1438,
      "ition": 1439,
      "▁pizzas": 1440,
      "▁town": 1441,
      "▁brushing": 1442,
      "▁ey": 1443,
      "▁multip": 1444,
      "▁trains": 1445,
      "▁conc": 1446,
      "ines": 1447,
      "▁ind": 1448,
      "▁multiple": 1449,
      "▁chick": 1450,
      "iti": 1451,
      "▁just": 1452,
      "bor": 1453,
      "▁tiled": 1454,
      "▁feat": 1455,
      "▁sty": 1456,
      "▁sauce": 1457,
      "▁boards": 1458,
      "▁ninten": 1459,
      "▁reading": 1460,
      "▁nintendo": 1461,
      "▁graff": 1462,
      "▁roll": 1463,
      "▁others": 1464,
      "▁single": 1465,
      "▁engine": 1466,
      "▁trun": 1467,
      "ley": 1468,
      "ats": 1469,
      "▁gat": 1470,
      "▁watches": 1471,
      "eeding": 1472,
      "▁was": 1473,
      "▁ped": 1474,
      "ides": 1475,
      "▁curb": 1476,
      "▁chicken": 1477,
      "▁benches": 1478,
      "▁variety": 1479,
      "th": 1480,
      "▁gri": 1481,
      "▁kind": 1482,
      "▁toppings": 1483,
      "ject": 1484,
      "▁graffiti": 1485,
      "bb": 1486,
      "▁laptops": 1487,
      "▁take": 1488,
      "▁pret": 1489,
      "▁equ": 1490,
      "▁enjoying": 1491,
      "▁mounted": 1492,
      "▁doughnuts": 1493,
      "▁pack": 1494,
      "▁egg": 1495,
      "▁cabinet": 1496,
      "▁plants": 1497,
      "ized": 1498,
      "que": 1499,
      "▁sail": 1500,
      "ming": 1501,
      "▁flat": 1502,
      "▁gear": 1503,
      "▁trucks": 1504,
      "▁place": 1505,
      "▁left": 1506,
      "htub": 1507,
      "▁see": 1508,
      "ures": 1509,
      "▁guys": 1510,
      "▁appliances": 1511,
      "▁bathtub": 1512,
      "▁distance": 1513,
      "▁after": 1514,
      "▁passengers": 1515,
      "▁pad": 1516,
      "armac": 1517,
      "▁sof": 1518,
      "▁gathered": 1519,
      "▁phones": 1520,
      "▁woods": 1521,
      "ely": 1522,
      "▁hotdo": 1523,
      "▁pretty": 1524,
      "▁tarmac": 1525,
      "cial": 1526,
      "▁shoes": 1527,
      "▁performing": 1528,
      "▁desser": 1529,
      "▁end": 1530,
      "▁cute": 1531,
      "▁swim": 1532,
      "vers": 1533,
      "▁bowls": 1534,
      "sed": 1535,
      "road": 1536,
      "▁rice": 1537,
      "▁tricks": 1538,
      "▁well": 1539,
      "▁carrot": 1540,
      "▁toilet,": 1541,
      "▁containing": 1542,
      "▁bal": 1543,
      "▁fenced": 1544,
      "▁pedest": 1545,
      "▁arran": 1546,
      "▁fly": 1547,
      "▁candles": 1548,
      "▁tran": 1549,
      "ages": 1550,
      "▁curtain": 1551,
      "▁glo": 1552,
      "place": 1553,
      "▁team": 1554,
      "▁flies": 1555,
      "▁pasture": 1556,
      "▁carriage": 1557,
      "▁stair": 1558,
      "▁break": 1559,
      "▁i": 1560,
      "▁spoon": 1561,
      "▁toothbrush": 1562,
      "▁sch": 1563,
      "▁dirty": 1564,
      "▁clut": 1565,
      "▁railroad": 1566,
      "▁five": 1567,
      "ronic": 1568,
      "▁feeding": 1569,
      "▁cattle": 1570,
      "▁du": 1571,
      "man": 1572,
      "▁school": 1573,
      "rete": 1574,
      "▁right": 1575,
      "▁concrete": 1576,
      "▁match": 1577,
      "▁poin": 1578,
      "▁bottles": 1579,
      "▁foot": 1580,
      "▁poles": 1581,
      "▁below": 1582,
      "▁electronic": 1583,
      "enter": 1584,
      "uding": 1585,
      "head": 1586,
      "ins": 1587,
      "ram": 1588,
      "▁onion": 1589,
      "▁center": 1590,
      "▁including": 1591,
      "pack": 1592,
      "▁steel": 1593,
      "anc": 1594,
      "iding": 1595,
      "▁takes": 1596,
      "▁bags": 1597,
      "▁fireplace": 1598,
      "light": 1599,
      "▁hu": 1600,
      "▁pul": 1601,
      "▁step": 1602,
      "▁sofa": 1603,
      "▁drinks": 1604,
      "▁polar": 1605,
      "intage": 1606,
      "▁vintage": 1607,
      "ession": 1608,
      "▁striped": 1609,
      "▁among": 1610,
      "ini": 1611,
      "ball": 1612,
      "upp": 1613,
      "▁sandwic": 1614,
      "fe": 1615,
      "▁crowded": 1616,
      "▁wr": 1617,
      "▁pulled": 1618,
      "▁backpack": 1619,
      "▁painting": 1620,
      "▁ti": 1621,
      "▁boxes": 1622,
      "▁nearby": 1623,
      "▁loc": 1624,
      "▁alone": 1625,
      "▁direction": 1626,
      "▁fridge": 1627,
      "▁huge": 1628,
      "▁ap": 1629,
      "▁let": 1630,
      "▁prof": 1631,
      "▁pillows": 1632,
      "▁catching": 1633,
      "▁object": 1634,
      "▁chur": 1635,
      "ads": 1636,
      "ames": 1637,
      "▁equip": 1638,
      "▁qu": 1639,
      "▁gold": 1640,
      "ged": 1641,
      "▁reaching": 1642,
      "▁container": 1643,
      "▁church": 1644,
      "▁equipment": 1645,
      "▁wra": 1646,
      "▁sliced": 1647,
      "▁vehicles": 1648,
      "▁mess": 1649,
      "ered": 1650,
      "▁planes": 1651,
      "▁art": 1652,
      "rist": 1653,
      "self": 1654,
      "▁giant": 1655,
      "▁both": 1656,
      "▁cream": 1657,
      "▁shaped": 1658,
      "▁trunk": 1659,
      "os": 1660,
      "ural": 1661,
      "▁towel": 1662,
      "▁suitcases": 1663,
      "▁wed": 1664,
      "▁feet": 1665,
      "lin": 1666,
      "▁del": 1667,
      "▁skateboards": 1668,
      "▁where": 1669,
      "▁deser": 1670,
      "▁served": 1671,
      "ens": 1672,
      "▁stall": 1673,
      "▁round": 1674,
      "▁wait": 1675,
      "▁floating": 1676,
      "▁kne": 1677,
      "▁plays": 1678,
      "stru": 1679,
      "ips": 1680,
      "anding": 1681,
      "▁tour": 1682,
      "▁sandwiches": 1683,
      "ical": 1684,
      "▁asian": 1685,
      "▁serve": 1686,
      "▁profession": 1687,
      "aking": 1688,
      "▁poses": 1689,
      "ber": 1690,
      "▁bicycles": 1691,
      "▁wire": 1692,
      "▁putting": 1693,
      "▁atop": 1694,
      "▁trail": 1695,
      "▁low": 1696,
      "alm": 1697,
      "▁surfers": 1698,
      "▁fa": 1699,
      "▁bushes": 1700,
      "▁serving": 1701,
      "▁taken": 1702,
      "▁hay": 1703,
      "▁tomatoes": 1704,
      "▁beds": 1705,
      "▁sticking": 1706,
      "▁professional": 1707,
      "wing": 1708,
      "eling": 1709,
      "▁pedestri": 1710,
      "iv": 1711,
      "▁away": 1712,
      "▁blo": 1713,
      "▁smiles": 1714,
      "▁prepares": 1715,
      "▁space": 1716,
      "ore": 1717,
      "ti": 1718,
      "ycl": 1719,
      "▁cover": 1720,
      "▁potatoes": 1721,
      "▁style": 1722,
      "set": 1723,
      "▁blen": 1724,
      "land": 1725,
      "▁mas": 1726,
      "▁staring": 1727,
      "▁rug": 1728,
      "▁lays": 1729,
      "rus": 1730,
      "▁commer": 1731,
      "▁stain": 1732,
      "elling": 1733,
      "▁bak": 1734,
      "▁mother": 1735,
      "▁check": 1736,
      "glass": 1737,
      "ident": 1738,
      "▁smo": 1739,
      "▁legs": 1740,
      "▁airplanes": 1741,
      "▁clothes": 1742,
      "▁commercial": 1743,
      "mb": 1744,
      "▁dev": 1745,
      "▁frien": 1746,
      "mas": 1747,
      "iness": 1748,
      "▁reflection": 1749,
      "▁pose": 1750,
      "let": 1751,
      "▁business": 1752,
      "sc": 1753,
      "▁which": 1754,
      "▁foods": 1755,
      "ashion": 1756,
      "▁cra": 1757,
      "▁dishes": 1758,
      "fast": 1759,
      "owing": 1760,
      "▁offic": 1761,
      "▁cement": 1762,
      "▁breakfast": 1763,
      "▁christ": 1764,
      "▁win": 1765,
      "▁subway": 1766,
      "▁form": 1767,
      "▁sinks": 1768,
      "glasses": 1769,
      "▁pool": 1770,
      "ise": 1771,
      "uches": 1772,
      "▁straw": 1773,
      "▁square": 1774,
      "▁christmas": 1775,
      "iny": 1776,
      "▁soup": 1777,
      "rench": 1778,
      "▁stacked": 1779,
      "▁design": 1780,
      "▁cooked": 1781,
      "▁farm": 1782,
      "vent": 1783,
      "▁flag": 1784,
      "▁ump": 1785,
      "ward": 1786,
      "▁har": 1787,
      "boarding": 1788,
      "▁dessert": 1789,
      "mon": 1790,
      "▁lone": 1791,
      "▁same": 1792,
      "▁lun": 1793,
      "▁shorts": 1794,
      "▁kitten": 1795,
      "aded": 1796,
      "ract": 1797,
      "urry": 1798,
      "▁trash": 1799,
      "▁urinal": 1800,
      "co": 1801,
      "▁french": 1802,
      "▁roo": 1803,
      "ban": 1804,
      "out": 1805,
      "ular": 1806,
      "▁pow": 1807,
      "▁seated": 1808,
      "▁swimming": 1809,
      "▁highway": 1810,
      "▁cluttered": 1811,
      "io": 1812,
      "▁games": 1813,
      "▁hotdog": 1814,
      "▁wedding": 1815,
      "▁ham": 1816,
      "per": 1817,
      "▁gard": 1818,
      "▁docked": 1819,
      "▁outf": 1820,
      "▁umpire": 1821,
      "▁get": 1822,
      "▁swings": 1823,
      "▁blender": 1824,
      "▁garden": 1825,
      "tom": 1826,
      "▁fun": 1827,
      "ults": 1828,
      "ists": 1829,
      "▁hard": 1830,
      "▁outdoors": 1831,
      "artment": 1832,
      "▁pepper": 1833,
      "▁overl": 1834,
      "▁mach": 1835,
      "▁sunglasses": 1836,
      "▁adults": 1837,
      "ual": 1838,
      "▁cro": 1839,
      "▁boarding": 1840,
      "▁assortment": 1841,
      "struction": 1842,
      "▁clocks": 1843,
      "itary": 1844,
      "ils": 1845,
      "▁ret": 1846,
      "▁ter": 1847,
      "▁gather": 1848,
      "kets": 1849,
      "icing": 1850,
      "▁ear": 1851,
      "ium": 1852,
      "▁say": 1853,
      "▁gr": 1854,
      "▁desktop": 1855,
      "▁controllers": 1856,
      "liner": 1857,
      "▁ice": 1858,
      "ded": 1859,
      "▁ent": 1860,
      "▁drives": 1861,
      "▁lad": 1862,
      "▁appear": 1863,
      "▁restroom": 1864,
      "made": 1865,
      "▁mus": 1866,
      "▁kick": 1867,
      "▁fashion": 1868,
      "▁cla": 1869,
      "▁yo": 1870,
      "ants": 1871,
      "▁flock": 1872,
      "▁prod": 1873,
      "pping": 1874,
      "ddle": 1875,
      "▁ledge": 1876,
      "▁hillside": 1877,
      "▁fish": 1878,
      "▁ceiling": 1879,
      "▁inter": 1880,
      "▁shelves": 1881,
      "▁facing": 1882,
      "oni": 1883,
      "▁signal": 1884,
      "▁wooded": 1885,
      "▁rocky": 1886,
      "iler": 1887,
      "▁jumps": 1888,
      "▁ext": 1889,
      "▁military": 1890,
      "▁does": 1891,
      "▁eyes": 1892,
      "▁stainless": 1893,
      "▁cr": 1894,
      "▁skies": 1895,
      "▁lawn": 1896,
      "▁race": 1897,
      "▁appro": 1898,
      "nic": 1899,
      "▁toddle": 1900,
      "▁sea": 1901,
      "▁ut": 1902,
      "▁doors": 1903,
      "go": 1904,
      "▁fall": 1905,
      "▁fram": 1906,
      "▁toddler": 1907,
      "▁drawn": 1908,
      "▁desert": 1909,
      "▁acc": 1910,
      "ned": 1911,
      "▁compet": 1912,
      "▁assorted": 1913,
      "vy": 1914,
      "▁gate": 1915,
      "▁chop": 1916,
      "▁eats": 1917,
      "▁free": 1918,
      "▁event": 1919,
      "br": 1920,
      "read": 1921,
      "▁things": 1922,
      "vert": 1923,
      "▁closeup": 1924,
      "▁stairs": 1925,
      "▁pointing": 1926,
      "fore": 1927,
      "ious": 1928,
      "▁doll": 1929,
      "▁prop": 1930,
      "▁includ": 1931,
      "▁card": 1932,
      "▁vegg": 1933,
      "▁advert": 1934,
      "▁hold": 1935,
      "▁clouds": 1936,
      "▁before": 1937,
      "arrow": 1938,
      "irc": 1939,
      "▁make": 1940,
      "▁neat": 1941,
      "▁coat": 1942,
      "▁lunch": 1943,
      "▁cost": 1944,
      "▁atte": 1945,
      "▁roof": 1946,
      "adow": 1947,
      "▁steps": 1948,
      "▁outfit": 1949,
      "▁table,": 1950,
      "▁picnic": 1951,
      "▁broccoli,": 1952,
      "▁glove": 1953,
      "iff": 1954,
      "▁arranged": 1955,
      "▁construction": 1956,
      "▁mod": 1957,
      "▁steep": 1958,
      "icks": 1959,
      "▁party": 1960,
      "▁disc": 1961,
      "ative": 1962,
      "ations": 1963,
      "▁wheel": 1964,
      "▁broken": 1965,
      "▁costum": 1966,
      "▁feed": 1967,
      "▁circ": 1968,
      "▁fig": 1969,
      "cture": 1970,
      "ia": 1971,
      "ns": 1972,
      "▁port": 1973,
      "▁mini": 1974,
      "▁snowboarding": 1975,
      "▁arms": 1976,
      "▁bottom": 1977,
      "▁cloth": 1978,
      "phones": 1979,
      "▁type": 1980,
      "▁electric": 1981,
      "▁trans": 1982,
      "▁friends": 1983,
      "▁rackets": 1984,
      "▁trailer": 1985,
      "▁pond": 1986,
      "▁cage": 1987,
      "▁mix": 1988,
      "uc": 1989,
      "▁cups": 1990,
      "xing": 1991,
      "▁must": 1992,
      "▁landing": 1993,
      "▁closed": 1994,
      "▁lett": 1995,
      "▁overlooking": 1996,
      "key": 1997,
      "▁dep": 1998,
      "▁narrow": 1999,
      "▁spr": 2000,
      "▁tied": 2001,
      "▁cap": 2002,
      "▁says": 2003,
      "▁ju": 2004,
      "▁wide": 2005,
      "▁kneeling": 2006,
      "imb": 2007,
      "▁couches": 2008,
      "▁jo": 2009,
      "▁boarder": 2010,
      "▁orn": 2011,
      "cakes": 2012,
      "▁graze": 2013,
      "uck": 2014,
      "▁hous": 2015,
      "▁fanc": 2016,
      "▁rider": 2017,
      "▁happ": 2018,
      "▁steam": 2019,
      "ung": 2020,
      "az": 2021,
      "▁indo": 2022,
      "▁overhead": 2023,
      "▁chef": 2024,
      "▁mag": 2025,
      "▁couch,": 2026,
      "▁pasta": 2027,
      "li": 2028,
      "▁nap": 2029,
      "▁je": 2030,
      "▁fight": 2031,
      "ons": 2032,
      "▁messy": 2033,
      "▁anti": 2034,
      "▁colors": 2035,
      "rushes": 2036,
      "aches": 2037,
      "▁sale": 2038,
      "▁himself": 2039,
      "▁opp": 2040,
      "▁net": 2041,
      "▁bever": 2042,
      "▁cakes": 2043,
      "▁machine": 2044,
      "so": 2045,
      "▁chain": 2046,
      "ially": 2047,
      "▁fancy": 2048,
      "▁commut": 2049,
      "ctor": 2050,
      "▁monitors": 2051,
      "▁smart": 2052,
      "▁skating": 2053,
      "▁sides": 2054,
      "▁carp": 2055,
      "▁stra": 2056,
      "▁appears": 2057,
      "▁reads": 2058,
      "▁plain": 2059,
      "na": 2060,
      "▁bite": 2061,
      "▁stru": 2062,
      "uching": 2063,
      "▁transit": 2064,
      "▁sweat": 2065,
      "▁foreground": 2066,
      "▁floors": 2067,
      "▁features": 2068,
      "-up": 2069,
      "▁good": 2070,
      "▁walkway": 2071,
      "▁veggies": 2072,
      "▁pract": 2073,
      "▁ket": 2074,
      "▁leather": 2075,
      "▁pots": 2076,
      "▁rela": 2077,
      "▁bur": 2078,
      "▁sunset": 2079,
      "▁ties": 2080,
      "▁grill": 2081,
      "▁carpet": 2082,
      "▁action": 2083,
      "ican": 2084,
      "▁bik": 2085,
      "▁drive": 2086,
      "▁pastries": 2087,
      "▁partially": 2088,
      "▁shade": 2089,
      "▁teen": 2090,
      "ates": 2091,
      "▁gl": 2092,
      "▁what": 2093,
      "▁sport": 2094,
      "▁urban": 2095,
      "ps": 2096,
      "ring": 2097,
      "▁cas": 2098,
      "▁still": 2099,
      "▁pos": 2100,
      "▁suits": 2101,
      "▁block": 2102,
      "▁beard": 2103,
      "▁pier": 2104,
      "▁ship": 2105,
      "▁scoo": 2106,
      "▁clothing": 2107,
      "▁stret": 2108,
      "▁antique": 2109,
      "▁enter": 2110,
      "▁loaded": 2111,
      "▁pepperoni": 2112,
      "▁palm": 2113,
      "▁mug": 2114,
      "▁commuter": 2115,
      "ators": 2116,
      "▁mush": 2117,
      "▁doorway": 2118,
      "▁pastry": 2119,
      "▁scooter": 2120,
      "▁pants": 2121,
      "ony": 2122,
      "▁refle": 2123,
      "▁2": 2124,
      "▁sill": 2125,
      "▁device": 2126,
      "▁mushroom": 2127,
      "▁held": 2128,
      "▁shoul": 2129,
      "▁mis": 2130,
      "▁blurry": 2131,
      "▁fashioned": 2132,
      "▁position": 2133,
      "▁tomato": 2134,
      "▁leash": 2135,
      "▁lies": 2136,
      "▁beneath": 2137,
      "▁hole": 2138,
      "▁baked": 2139,
      "▁towels": 2140,
      "▁vis": 2141,
      "▁photos": 2142,
      "▁pee": 2143,
      "▁makes": 2144,
      "▁racing": 2145,
      "▁bull": 2146,
      "▁saus": 2147,
      "▁smoke": 2148,
      "▁rust": 2149,
      "▁class": 2150,
      "▁gets": 2151,
      "▁toas": 2152,
      "▁toilets": 2153,
      "▁kinds": 2154,
      "▁wrapped": 2155,
      "▁winter": 2156,
      "▁paw": 2157,
      "me": 2158,
      "▁sy": 2159,
      "▁railing": 2160,
      "▁toys": 2161,
      "▁harbor": 2162,
      "house": 2163,
      "▁wets": 2164,
      "ork": 2165,
      "ib": 2166,
      "▁bed,": 2167,
      "▁decorative": 2168,
      "▁contains": 2169,
      "▁houses": 2170,
      "▁structure": 2171,
      "▁lid": 2172,
      "▁wetsuit": 2173,
      "▁meat,": 2174,
      "▁sprink": 2175,
      "▁giving": 2176,
      "ne": 2177,
      "▁self": 2178,
      "cket": 2179,
      "▁petting": 2180,
      "eds": 2181,
      "da": 2182,
      "ering": 2183,
      "range": 2184,
      "▁sheet": 2185,
      "▁apartment": 2186,
      "▁used": 2187,
      "ighting": 2188,
      "very": 2189,
      "▁onions": 2190,
      "▁island": 2191,
      "▁lettuce": 2192,
      "▁fighter": 2193,
      "act": 2194,
      "▁supp": 2195,
      "cker": 2196,
      "▁blond": 2197,
      "bs": 2198,
      "▁mud": 2199,
      "▁includes": 2200,
      "▁containers": 2201,
      "▁gla": 2202,
      "▁carrots,": 2203,
      "▁model": 2204,
      "▁comf": 2205,
      "be": 2206,
      "▁rests": 2207,
      "▁garage": 2208,
      "ired": 2209,
      "▁spot": 2210,
      "ng": 2211,
      "yard": 2212,
      "▁seag": 2213,
      "▁sort": 2214,
      "▁med": 2215,
      "▁peppers": 2216,
      "▁stun": 2217,
      "cting": 2218,
      "▁foll": 2219,
      "▁dra": 2220,
      "ught": 2221,
      "▁seagull": 2222,
      "▁use": 2223,
      "▁leaf": 2224,
      "▁prepared": 2225,
      "▁vanity": 2226,
      "▁pedestrians": 2227,
      "▁opened": 2228,
      "▁multi": 2229,
      "ef": 2230,
      "▁tur": 2231,
      "▁fur": 2232,
      "▁streets": 2233,
      "▁six": 2234,
      "▁bunches": 2235,
      "eller": 2236,
      "▁mound": 2237,
      "▁nood": 2238,
      "▁scul": 2239,
      "▁leading": 2240,
      "▁strawber": 2241,
      "▁return": 2242,
      "sting": 2243,
      "▁hall": 2244,
      "▁upside": 2245,
      "idential": 2246,
      "▁war": 2247,
      "▁mit": 2248,
      "▁pr": 2249,
      "acon": 2250,
      "▁produce": 2251,
      "rop": 2252,
      "lage": 2253,
      "▁cele": 2254,
      "▁ru": 2255,
      "▁candle": 2256,
      "▁utens": 2257,
      "▁siz": 2258,
      "▁here": 2259,
      "▁rural": 2260,
      "▁sculpt": 2261,
      "▁writing": 2262,
      "▁waits": 2263,
      "▁pave": 2264,
      "▁hood": 2265,
      "▁residential": 2266,
      "▁shopping": 2267,
      "▁papers": 2268,
      "▁these": 2269,
      "gon": 2270,
      "▁ripe": 2271,
      "▁barn": 2272,
      "▁brightly": 2273,
      "▁pavement": 2274,
      "▁bacon": 2275,
      "▁chin": 2276,
      "▁lift": 2277,
      "▁tiny": 2278,
      "▁heads": 2279,
      "▁turned": 2280,
      "▁smal": 2281,
      "▁milk": 2282,
      "scap": 2283,
      "▁propeller": 2284,
      "par": 2285,
      "unding": 2286,
      "ible": 2287,
      "mo": 2288,
      "▁chips": 2289,
      "▁bush": 2290,
      "▁amer": 2291,
      "▁nose": 2292,
      "yclist": 2293,
      "▁alongside": 2294,
      "▁juice": 2295,
      "hel": 2296,
      "▁remotes": 2297,
      "▁paddle": 2298,
      "ier": 2299,
      "▁groom": 2300,
      "▁hats": 2301,
      "▁patio": 2302,
      "▁happy": 2303,
      "▁frosting": 2304,
      "▁soda": 2305,
      "itten": 2306,
      "ray": 2307,
      "▁cond": 2308,
      "▁tea": 2309,
      "▁meters": 2310,
      "ield": 2311,
      "▁stream": 2312,
      "ital": 2313,
      "▁cal": 2314,
      "▁log": 2315,
      "▁pans": 2316,
      "bage": 2317,
      "▁touching": 2318,
      "ining": 2319,
      "erly": 2320,
      "▁lemon": 2321,
      "▁personal": 2322,
      "▁tank": 2323,
      "erial": 2324,
      "▁leg": 2325,
      "▁urinals": 2326,
      "▁smaller": 2327,
      "▁directions": 2328,
      "▁sheets": 2329,
      "▁pres": 2330,
      "▁rainy": 2331,
      "▁flight": 2332,
      "▁itself": 2333,
      "▁climb": 2334,
      "▁cub": 2335,
      "▁rear": 2336,
      "▁displaying": 2337,
      "▁lamb": 2338,
      "▁riders": 2339,
      "▁close-up": 2340,
      "▁eggs": 2341,
      "▁gen": 2342,
      "▁kicking": 2343,
      "kin": 2344,
      "▁snowboards": 2345,
      "▁branches": 2346,
      "▁term": 2347,
      "▁sized": 2348,
      "▁eld": 2349,
      "▁laid": 2350,
      "▁sem": 2351,
      "▁exp": 2352,
      "▁ducks": 2353,
      "▁costume": 2354,
      "ige": 2355,
      "▁persons": 2356,
      "▁mustard": 2357,
      "▁purse": 2358,
      "▁parade": 2359,
      "bile": 2360,
      "zer": 2361,
      "chup": 2362,
      "▁tent": 2363,
      "ivid": 2364,
      "▁ketchup": 2365,
      "▁star": 2366,
      "cked": 2367,
      "▁glaz": 2368,
      "▁terminal": 2369,
      "▁lines": 2370,
      "▁noodles": 2371,
      "▁loading": 2372,
      "▁ladies": 2373,
      "▁only": 2374,
      "▁beige": 2375,
      "▁sliding": 2376,
      "▁officer": 2377,
      "▁built": 2378,
      "aper": 2379,
      "▁dresser": 2380,
      "▁sausage": 2381,
      "▁flags": 2382,
      "▁pupp": 2383,
      "▁char": 2384,
      "▁american": 2385,
      "ices": 2386,
      "▁deep": 2387,
      "▁platter": 2388,
      "▁stud": 2389,
      "▁ow": 2390,
      "▁bare": 2391,
      "▁decorations": 2392,
      "▁uniforms": 2393,
      "lies": 2394,
      "▁enclosed": 2395,
      "▁ornate": 2396,
      "▁waters": 2397,
      "▁individ": 2398,
      "▁elderly": 2399,
      "▁pickup": 2400,
      "▁butter": 2401,
      "▁power": 2402,
      "▁fried": 2403,
      "▁shoe": 2404,
      "▁throws": 2405,
      "▁trays": 2406,
      "▁leans": 2407,
      "▁eye": 2408,
      "scape": 2409,
      "▁gas": 2410,
      "ster": 2411,
      "▁course": 2412,
      "▁sailing": 2413,
      "▁approaching": 2414,
      "▁rais": 2415,
      "mpting": 2416,
      "cra": 2417,
      "▁collection": 2418,
      "▁bride": 2419,
      "ness": 2420,
      "ature": 2421,
      "▁deli": 2422,
      "▁pipe": 2423,
      "▁goes": 2424,
      "ird": 2425,
      "shirt": 2426,
      "▁utensils": 2427,
      "▁semi": 2428,
      "▁laugh": 2429,
      "▁posted": 2430,
      "▁attempting": 2431,
      "▁sweater": 2432,
      "▁goats": 2433,
      "▁spect": 2434,
      "▁uses": 2435,
      "▁indoor": 2436,
      "▁individual": 2437,
      "▁vest": 2438,
      "▁growing": 2439,
      "ushing": 2440,
      "case": 2441,
      "pas": 2442,
      "▁1": 2443,
      "cted": 2444,
      "▁liqu": 2445,
      "▁hangs": 2446,
      "▁crosswalk": 2447,
      "▁ab": 2448,
      "▁sim": 2449,
      "▁most": 2450,
      "▁runs": 2451,
      "▁paint": 2452,
      "▁sailbo": 2453,
      "▁transp": 2454,
      "▁beverage": 2455,
      "▁fake": 2456,
      "▁pulls": 2457,
      "▁written": 2458,
      "ior": 2459,
      "allow": 2460,
      "lled": 2461,
      "ory": 2462,
      "▁mitt": 2463,
      "▁toast": 2464,
      "▁cons": 2465,
      "▁passes": 2466,
      "nel": 2467,
      "▁life": 2468,
      "▁neatly": 2469,
      "▁guit": 2470,
      "ence": 2471,
      "▁rows": 2472,
      "yclists": 2473,
      "▁if": 2474,
      "rounding": 2475,
      "▁stad": 2476,
      "omot": 2477,
      "▁surrounding": 2478,
      "▁bending": 2479,
      "▁curled": 2480,
      "sted": 2481,
      "▁potted": 2482,
      "▁rolling": 2483,
      "hill": 2484,
      "ton": 2485,
      "ully": 2486,
      "▁relaxing": 2487,
      "craft": 2488,
      "▁flor": 2489,
      "▁micro": 2490,
      "▁locomot": 2491,
      "▁stadium": 2492,
      "cing": 2493,
      "usk": 2494,
      "▁jets": 2495,
      "ware": 2496,
      "▁na": 2497,
      "▁roadway": 2498,
      "ging": 2499,
      "▁3": 2500,
      "als": 2501,
      "▁rope": 2502,
      "▁red,": 2503,
      "▁baskets": 2504,
      "▁patter": 2505,
      "gan": 2506,
      "▁chair,": 2507,
      "▁missing": 2508,
      "▁supplies": 2509,
      "▁how": 2510,
      "▁shirtless": 2511,
      "▁handle": 2512,
      "cake": 2513,
      "▁greens": 2514,
      "▁glazed": 2515,
      "dd": 2516,
      "ues": 2517,
      "▁duck": 2518,
      "▁frame": 2519,
      "▁pet": 2520,
      "▁pri": 2521,
      "▁stool": 2522,
      "▁sticks": 2523,
      "▁snack": 2524,
      "▁tax": 2525,
      "▁wires": 2526,
      "▁wheels": 2527,
      "▁sports": 2528,
      "▁sculpture": 2529,
      "▁locomotive": 2530,
      "▁sold": 2531,
      "ishing": 2532,
      "▁ven": 2533,
      "▁shadow": 2534,
      "▁trol": 2535,
      "▁por": 2536,
      "▁siting": 2537,
      "▁airliner": 2538,
      "▁spectators": 2539,
      "▁bell": 2540,
      "▁speed": 2541,
      "▁pedestrian": 2542,
      "▁roses": 2543,
      "▁ke": 2544,
      "▁motion": 2545,
      "rance": 2546,
      "▁muse": 2547,
      "▁fal": 2548,
      "▁aircraft": 2549,
      "▁paved": 2550,
      "▁falling": 2551,
      "▁selfie": 2552,
      "▁museum": 2553,
      "▁tool": 2554,
      "▁balls": 2555,
      "bi": 2556,
      "▁dim": 2557,
      "▁blow": 2558,
      "ption": 2559,
      "▁tail": 2560,
      "uffy": 2561,
      "▁bookshel": 2562,
      "▁gentle": 2563,
      "▁performs": 2564,
      "line": 2565,
      "▁without": 2566,
      "▁wagon": 2567,
      "▁piled": 2568,
      "osite": 2569,
      "▁celebr": 2570,
      "ares": 2571,
      "▁telephone": 2572,
      "▁stunt": 2573,
      "▁guitar": 2574,
      "lish": 2575,
      "▁ing": 2576,
      "▁da": 2577,
      "▁frisbe": 2578,
      "▁practicing": 2579,
      "bed": 2580,
      "▁ang": 2581,
      "▁shallow": 2582,
      "▁packed": 2583,
      "▁arrange": 2584,
      "▁num": 2585,
      "▁section": 2586,
      "▁stove,": 2587,
      "▁floral": 2588,
      "▁su": 2589,
      "▁pine": 2590,
      "▁flip": 2591,
      "▁separ": 2592,
      "▁advertise": 2593,
      "▁tops": 2594,
      "▁remo": 2595,
      "▁item": 2596,
      "▁aw": 2597,
      "▁person's": 2598,
      "▁numer": 2599,
      "bow": 2600,
      "low": 2601,
      "redi": 2602,
      "▁ingredi": 2603,
      "▁fing": 2604,
      "▁also": 2605,
      "▁garbage": 2606,
      "▁curtains": 2607,
      "▁delic": 2608,
      "▁toss": 2609,
      "▁someone's": 2610,
      "▁arrangement": 2611,
      "▁cycle": 2612,
      "▁tong": 2613,
      "▁laptop,": 2614,
      "▁adj": 2615,
      "▁talks": 2616,
      "▁landscape": 2617,
      "▁shoulder": 2618,
      "▁hea": 2619,
      "▁dead": 2620,
      "akers": 2621,
      "▁toaster": 2622,
      "▁paras": 2623,
      "▁flown": 2624,
      "▁homemade": 2625,
      "▁opposite": 2626,
      "▁advertisement": 2627,
      "▁selling": 2628,
      "▁cop": 2629,
      "▁hum": 2630,
      "ured": 2631,
      "▁bank": 2632,
      "▁formation": 2633,
      "-f": 2634,
      "▁bucket": 2635,
      "▁soft": 2636,
      "▁freezer": 2637,
      "cking": 2638,
      "▁spread": 2639,
      "▁cupboard": 2640,
      "▁beans": 2641,
      "▁images": 2642,
      "ste": 2643,
      "▁electronics": 2644,
      "▁fir": 2645,
      "▁fast": 2646,
      "▁cupcakes": 2647,
      "▁covering": 2648,
      "ute": 2649,
      "▁sniff": 2650,
      "▁rus": 2651,
      "▁travels": 2652,
      "▁patch": 2653,
      "▁you": 2654,
      "▁fallen": 2655,
      "▁ingredients": 2656,
      "▁tongue": 2657,
      "time": 2658,
      "▁holder": 2659,
      "▁hors": 2660,
      "▁jetliner": 2661,
      "▁tiles": 2662,
      "▁strawberries": 2663,
      "▁puppy": 2664,
      "bur": 2665,
      "abit": 2666,
      "▁cones": 2667,
      "▁buff": 2668,
      "▁hits": 2669,
      "▁jeans": 2670,
      "▁sprinkles": 2671,
      "asing": 2672,
      "aged": 2673,
      "▁corn": 2674,
      "▁exh": 2675,
      "▁toothbrushes": 2676,
      "▁skirt": 2677,
      "▁fluffy": 2678,
      "▁skateboarders": 2679,
      "▁asleep": 2680,
      "▁downhill": 2681,
      "▁coll": 2682,
      "▁mirrors": 2683,
      "▁workers": 2684,
      "▁icing": 2685,
      "ckey": 2686,
      "▁foc": 2687,
      "▁headphones": 2688,
      "▁pitching": 2689,
      "▁blankets": 2690,
      "▁lamps": 2691,
      "▁mixed": 2692,
      "cess": 2693,
      "▁habit": 2694,
      "eback": 2695,
      "▁competition": 2696,
      "▁horseback": 2697,
      "▁chairs,": 2698,
      "▁marble": 2699,
      "▁newsp": 2700,
      "umin": 2701,
      "ancing": 2702,
      "▁pushing": 2703,
      "▁fin": 2704,
      "▁muff": 2705,
      "▁stuck": 2706,
      "ways": 2707,
      "▁objects": 2708,
      "▁gathering": 2709,
      "lit": 2710,
      "▁man's": 2711,
      "▁sha": 2712,
      "▁stoplight": 2713,
      "▁counters": 2714,
      "▁pictured": 2715,
      "▁inf": 2716,
      "▁mop": 2717,
      "cts": 2718,
      "▁balloon": 2719,
      "▁cheese,": 2720,
      "▁visible": 2721,
      "▁tab": 2722,
      "▁it,": 2723,
      "▁whole": 2724,
      "▁faces": 2725,
      "▁featuring": 2726,
      "▁neon": 2727,
      "▁frosted": 2728,
      "▁motorbi": 2729,
      "▁habitat": 2730,
      "▁aut": 2731,
      "▁keyboard,": 2732,
      "▁access": 2733,
      "▁lab": 2734,
      "▁string": 2735,
      "▁photograp": 2736,
      "ooks": 2737,
      "▁rep": 2738,
      "aming": 2739,
      "▁snowboarders": 2740,
      "▁entrance": 2741,
      "▁cer": 2742,
      "▁cargo": 2743,
      "▁golden": 2744,
      "▁blonde": 2745,
      "▁climbing": 2746,
      "▁reaches": 2747,
      "▁wears": 2748,
      "ooked": 2749,
      "▁slopes": 2750,
      "▁checkered": 2751,
      "fully": 2752,
      "▁dump": 2753,
      "ising": 2754,
      "▁pouring": 2755,
      "▁washing": 2756,
      "▁transport": 2757,
      "▁large,": 2758,
      "▁organ": 2759,
      "▁hotdogs": 2760,
      "ked": 2761,
      "▁range": 2762,
      "▁shirts": 2763,
      "▁delicious": 2764,
      "ipped": 2765,
      "▁leap": 2766,
      "bbing": 2767,
      "▁napkin": 2768,
      "▁mushrooms": 2769,
      "▁feeder": 2770,
      "-de": 2771,
      "▁chil": 2772,
      "asty": 2773,
      "▁rolls": 2774,
      "ho": 2775,
      "▁far": 2776,
      "▁white,": 2777,
      "▁carries": 2778,
      "▁bit": 2779,
      "ondon": 2780,
      "▁obser": 2781,
      "▁magn": 2782,
      "▁microphone": 2783,
      "▁wing": 2784,
      "▁fan": 2785,
      "ished": 2786,
      "▁shiny": 2787,
      "▁someones": 2788,
      "▁pige": 2789,
      "▁rainbow": 2790,
      "▁stickers": 2791,
      "▁prin": 2792,
      "oned": 2793,
      "▁covers": 2794,
      "▁even": 2795,
      "ount": 2796,
      "▁bananas,": 2797,
      "▁haired": 2798,
      "▁tun": 2799,
      "oming": 2800,
      "▁name": 2801,
      "▁moves": 2802,
      "▁exten": 2803,
      "lives": 2804,
      "▁condim": 2805,
      "py": 2806,
      "▁olives": 2807,
      "▁fre": 2808,
      "▁london": 2809,
      "orter": 2810,
      "▁batting": 2811,
      "▁backs": 2812,
      "▁opening": 2813,
      "▁laughing": 2814,
      "▁focus": 2815,
      "▁basketball": 2816,
      "▁furnis": 2817,
      "▁liquid": 2818,
      "▁grilled": 2819,
      "▁officers": 2820,
      "▁gravel": 2821,
      "▁blowing": 2822,
      "boy": 2823,
      "▁cookies": 2824,
      "▁enjoy": 2825,
      "▁hambur": 2826,
      "▁interior": 2827,
      "dling": 2828,
      "▁figur": 2829,
      "▁trolley": 2830,
      "▁exhib": 2831,
      "▁bul": 2832,
      "▁beef": 2833,
      "▁hills": 2834,
      "ders": 2835,
      "▁aud": 2836,
      "▁great": 2837,
      "▁teenag": 2838,
      "▁lighting": 2839,
      "ountain": 2840,
      "▁jar": 2841,
      "▁checking": 2842,
      "▁first": 2843,
      "▁ahead": 2844,
      "▁cust": 2845,
      "▁fountain": 2846,
      "▁loung": 2847,
      "▁mobile": 2848,
      "iers": 2849,
      "ories": 2850,
      "▁thin": 2851,
      "▁cleaning": 2852,
      "▁cardboard": 2853,
      "▁rusty": 2854,
      "wood": 2855,
      "▁goat": 2856,
      "▁saf": 2857,
      "▁potato": 2858,
      "▁inst": 2859,
      "▁shru": 2860,
      "▁arch": 2861,
      "▁bou": 2862,
      "ied": 2863,
      "uzz": 2864,
      "van": 2865,
      "▁t-": 2866,
      "▁vol": 2867,
      "▁plaid": 2868,
      "▁comple": 2869,
      "▁bunk": 2870,
      "▁displays": 2871,
      "aked": 2872,
      "ail": 2873,
      "▁sug": 2874,
      "▁br": 2875,
      "▁fishing": 2876,
      "▁den": 2877,
      "▁shape": 2878,
      "▁indic": 2879,
      "▁located": 2880,
      "▁miniature": 2881,
      "▁rusted": 2882,
      "▁tabby": 2883,
      "ience": 2884,
      "▁sad": 2885,
      "▁trav": 2886,
      "▁foil": 2887,
      "▁desserts": 2888,
      "▁pin": 2889,
      "ental": 2890,
      "▁chees": 2891,
      "▁odd": 2892,
      "▁alley": 2893,
      "▁cowboy": 2894,
      "▁booth": 2895,
      "'t": 2896,
      "▁herself": 2897,
      "▁leag": 2898,
      "ently": 2899,
      "▁mac": 2900,
      "▁sandwich,": 2901,
      "▁marin": 2902,
      "▁every": 2903,
      "▁bean": 2904,
      "▁clay": 2905,
      "▁entertain": 2906,
      "▁newspaper": 2907,
      "▁exhibit": 2908,
      "was": 2909,
      "icol": 2910,
      "▁woman's": 2911,
      "▁flooring": 2912,
      "▁vegetables,": 2913,
      "▁bookshelf": 2914,
      "▁fold": 2915,
      "rial": 2916,
      "ugging": 2917,
      "▁cano": 2918,
      "▁jockey": 2919,
      "▁travelling": 2920,
      "▁cran": 2921,
      "▁nic": 2922,
      "▁spin": 2923,
      "▁countertop": 2924,
      "▁controls": 2925,
      "▁hosp": 2926,
      "▁turning": 2927,
      "▁lane": 2928,
      "▁catches": 2929,
      "▁carts": 2930,
      "▁sec": 2931,
      "▁posed": 2932,
      "▁muddy": 2933,
      "▁tools": 2934,
      "▁hospital": 2935,
      "ited": 2936,
      "erries": 2937,
      "rot": 2938,
      "▁spray": 2939,
      "▁mirror,": 2940,
      "▁unmade": 2941,
      "▁seats": 2942,
      "▁multicol": 2943,
      "▁depic": 2944,
      "▁rad": 2945,
      "▁forward": 2946,
      "▁bent": 2947,
      "▁double-de": 2948,
      "▁pickle": 2949,
      "▁crust": 2950,
      "▁custom": 2951,
      "nect": 2952,
      "▁bra": 2953,
      "ither": 2954,
      "▁neigh": 2955,
      "▁ic": 2956,
      "▁av": 2957,
      "▁stir": 2958,
      "amic": 2959,
      "stri": 2960,
      "▁cere": 2961,
      "▁either": 2962,
      "▁sharing": 2963,
      "▁indust": 2964,
      "▁gloves": 2965,
      "▁syste": 2966,
      "▁size": 2967,
      "▁aerial": 2968,
      "▁calf": 2969,
      "thy": 2970,
      "▁hallway": 2971,
      "▁league": 2972,
      "mpt": 2973,
      "eting": 2974,
      "anta": 2975,
      "▁meadow": 2976,
      "▁helping": 2977,
      "▁steeple": 2978,
      "▁comforter": 2979,
      "most": 2980,
      "▁stares": 2981,
      "umm": 2982,
      "▁cafe": 2983,
      "▁attire": 2984,
      "▁balc": 2985,
      "▁magaz": 2986,
      "▁taxi": 2987,
      "▁sus": 2988,
      "erry": 2989,
      "▁thrown": 2990,
      "amp": 2991,
      "▁series": 2992,
      "▁industrial": 2993,
      "wh": 2994,
      "▁bill": 2995,
      "▁onl": 2996,
      "▁dot": 2997,
      "▁read": 2998,
      "▁pancakes": 2999,
      "▁matt": 3000,
      "▁condiments": 3001,
      "▁neighbor": 3002,
      "▁ill": 3003,
      "▁stage": 3004,
      "▁para": 3005,
      "▁groc": 3006,
      "▁watering": 3007,
      "▁libr": 3008,
      "▁uni": 3009,
      "washer": 3010,
      "▁nat": 3011,
      "▁computer,": 3012,
      "▁ceramic": 3013,
      "▁library": 3014,
      "hood": 3015,
      "▁cig": 3016,
      "▁calm": 3017,
      "▁grapes": 3018,
      "▁driver": 3019,
      "▁seems": 3020,
      "▁biting": 3021,
      "here": 3022,
      "▁words": 3023,
      "▁dishwasher": 3024,
      "▁rice,": 3025,
      "▁following": 3026,
      "▁nicely": 3027,
      "▁multicolored": 3028,
      "▁double-decker": 3029,
      "town": 3030,
      "▁twin": 3031,
      "▁connect": 3032,
      "▁more": 3033,
      "gged": 3034,
      "▁freshly": 3035,
      "▁mostly": 3036,
      "▁frisbees": 3037,
      "men": 3038,
      "▁brushes": 3039,
      "▁almost": 3040,
      "▁burger": 3041,
      "▁accessories": 3042,
      "▁tasty": 3043,
      "▁lif": 3044,
      "▁sleeps": 3045,
      "▁statues": 3046,
      "▁chinese": 3047,
      "bble": 3048,
      "▁own": 3049,
      "arf": 3050,
      "▁main": 3051,
      "▁dig": 3052,
      "▁gaz": 3053,
      "iled": 3054,
      "▁chili": 3055,
      "▁coach": 3056,
      "▁chasing": 3057,
      "▁jumb": 3058,
      "▁steak": 3059,
      "▁picking": 3060,
      "▁teams": 3061,
      "▁paws": 3062,
      "▁system": 3063,
      "▁that's": 3064,
      "▁heart": 3065,
      "▁bagg": 3066,
      "▁matching": 3067,
      "▁tomatoes,": 3068,
      "work": 3069,
      "▁santa": 3070,
      "▁band": 3071,
      "▁baking": 3072,
      "▁iron": 3073,
      "▁advertising": 3074,
      "▁mattress": 3075,
      "▁sle": 3076,
      "▁father": 3077,
      "ility": 3078,
      "▁cliff": 3079,
      "▁railway": 3080,
      "▁countryside": 3081,
      "▁onlook": 3082,
      "▁neighborhood": 3083,
      ".\"": 3084,
      "zen": 3085,
      "attered": 3086,
      "▁heading": 3087,
      "▁chest": 3088,
      "▁refrigerator,": 3089,
      "▁ado": 3090,
      "ried": 3091,
      "▁arrow": 3092,
      "▁canop": 3093,
      "▁grand": 3094,
      "▁gentleman": 3095,
      "▁cush": 3096,
      "▁thick": 3097,
      "▁dryer": 3098,
      "▁apron": 3099,
      "▁designed": 3100,
      "▁funny": 3101,
      "▁seagulls": 3102,
      "▁tunnel": 3103,
      "▁t-shirt": 3104,
      "▁marina": 3105,
      "▁balcony": 3106,
      "gress": 3107,
      "▁wings": 3108,
      "▁hugging": 3109,
      "▁comb": 3110,
      "▁serv": 3111,
      "▁tub,": 3112,
      "▁tas": 3113,
      "allic": 3114,
      "▁chopped": 3115,
      "▁vend": 3116,
      "▁cushion": 3117,
      "ral": 3118,
      "▁cru": 3119,
      "▁mans": 3120,
      "▁larger": 3121,
      "ctive": 3122,
      "▁bakery": 3123,
      "▁collar": 3124,
      "▁bouquet": 3125,
      "-s": 3126,
      "ux": 3127,
      "▁ribb": 3128,
      "▁horns": 3129,
      "▁child's": 3130,
      "▁cuts": 3131,
      "▁metallic": 3132,
      "▁process": 3133,
      "▁amongst": 3134,
      "▁aband": 3135,
      "▁heavy": 3136,
      "gy": 3137,
      "iet": 3138,
      "ker": 3139,
      "rage": 3140,
      "▁foreign": 3141,
      "aret": 3142,
      "▁straight": 3143,
      "▁sniffing": 3144,
      "▁hamburger": 3145,
      "▁sugar": 3146,
      "▁suspen": 3147,
      "▁cigaret": 3148,
      "▁leaving": 3149,
      "▁trunks": 3150,
      "▁jumbo": 3151,
      "oc": 3152,
      "▁fed": 3153,
      "isting": 3154,
      "▁apples,": 3155,
      "▁owner": 3156,
      "▁tin": 3157,
      "stand": 3158,
      "▁works": 3159,
      "▁buffet": 3160,
      "▁dusk": 3161,
      "hers": 3162,
      "▁tractor": 3163,
      "ument": 3164,
      "▁tries": 3165,
      "▁hose": 3166,
      "▁capt": 3167,
      "▁winds": 3168,
      "▁ring": 3169,
      "▁desk,": 3170,
      "▁driveway": 3171,
      "▁baggage": 3172,
      "▁abandoned": 3173,
      "▁fixt": 3174,
      "▁convers": 3175,
      "▁prepare": 3176,
      "▁attempt": 3177,
      "sel": 3178,
      "▁el": 3179,
      "▁ris": 3180,
      "ano": 3181,
      "ette": 3182,
      "olf": 3183,
      "▁cupcake": 3184,
      "▁typing": 3185,
      "▁devices": 3186,
      "▁dimly": 3187,
      "▁audience": 3188,
      "▁ori": 3189,
      "▁warm": 3190,
      "ront": 3191,
      "▁story": 3192,
      "▁rose": 3193,
      "▁jers": 3194,
      "▁weather": 3195,
      "▁move": 3196,
      "▁chewing": 3197,
      "▁resort": 3198,
      "▁poster": 3199,
      "▁folded": 3200,
      "▁natural": 3201,
      "▁sets": 3202,
      "▁cool": 3203,
      "▁shining": 3204,
      "▁downtown": 3205,
      "▁sunlight": 3206,
      "▁mask": 3207,
      "pl": 3208,
      "▁pony": 3209,
      "▁fans": 3210,
      "▁tor": 3211,
      "use": 3212,
      "▁beg": 3213,
      "▁phone,": 3214,
      "▁unus": 3215,
      "▁worker": 3216,
      "▁formal": 3217,
      "▁connected": 3218,
      "▁jersey": 3219,
      "app": 3220,
      "ater": 3221,
      "▁cold": 3222,
      "▁cases": 3223,
      "▁tho": 3224,
      "▁circular": 3225,
      "▁turkey": 3226,
      "▁motorbike": 3227,
      "▁entertainment": 3228,
      "▁bay": 3229,
      "▁mom": 3230,
      "▁castle": 3231,
      "ters": 3232,
      "▁hung": 3233,
      "▁dispen": 3234,
      "▁propped": 3235,
      "▁obst": 3236,
      "▁mass": 3237,
      "urf": 3238,
      "quets": 3239,
      "▁prote": 3240,
      "▁rails": 3241,
      "▁framed": 3242,
      "▁bearded": 3243,
      "▁finger": 3244,
      "▁sla": 3245,
      "▁busses": 3246,
      "▁motorcyclist": 3247,
      "▁multi-": 3248,
      "▁gran": 3249,
      "▁strol": 3250,
      "▁backyard": 3251,
      "▁shower,": 3252,
      "▁helm": 3253,
      "▁follow": 3254,
      "▁hi": 3255,
      "ightly": 3256,
      "▁progress": 3257,
      "▁boots": 3258,
      "▁candy": 3259,
      "▁quiet": 3260,
      "▁smoking": 3261,
      "▁organized": 3262,
      "▁obstac": 3263,
      "▁pop": 3264,
      "▁lighthouse": 3265,
      "▁onlookers": 3266,
      "coming": 3267,
      "tor": 3268,
      "▁hiding": 3269,
      "▁ge": 3270,
      "rable": 3271,
      "▁piano": 3272,
      "▁upon": 3273,
      "▁food,": 3274,
      "▁eggs,": 3275,
      "▁canopy": 3276,
      "▁people,": 3277,
      "▁small,": 3278,
      "▁point": 3279,
      "▁storage": 3280,
      "▁guard": 3281,
      "dered": 3282,
      "▁sailboat": 3283,
      "▁helmets": 3284,
      "▁oper": 3285,
      "illa": 3286,
      "ival": 3287,
      "▁raised": 3288,
      "lower": 3289,
      "▁bund": 3290,
      "alley": 3291,
      "chair": 3292,
      "od": 3293,
      "▁son": 3294,
      "ades": 3295,
      "▁flood": 3296,
      "▁kitty": 3297,
      "▁males": 3298,
      "▁contents": 3299,
      "▁bars": 3300,
      "▁reflected": 3301,
      "ipping": 3302,
      "zy": 3303,
      "▁golf": 3304,
      "▁level": 3305,
      "▁desc": 3306,
      "▁scarf": 3307,
      "▁besides": 3308,
      "ggy": 3309,
      "colored": 3310,
      "▁bikers": 3311,
      "▁porch": 3312,
      "▁tossing": 3313,
      "▁evening": 3314,
      "▁illumin": 3315,
      "▁ple": 3316,
      "▁furry": 3317,
      "▁tablet": 3318,
      "▁swe": 3319,
      "▁collage": 3320,
      "vely": 3321,
      "▁wilder": 3322,
      "▁potatoes,": 3323,
      "▁chefs": 3324,
      "▁magnets": 3325,
      "▁freight": 3326,
      "▁adorable": 3327,
      "▁pump": 3328,
      "▁licking": 3329,
      "▁unc": 3330,
      "▁batter,": 3331,
      "▁lounging": 3332,
      "▁inte": 3333,
      "angu": 3334,
      "▁savan": 3335,
      "▁monkey": 3336,
      "▁belt": 3337,
      "▁spinach": 3338,
      "ives": 3339,
      "vated": 3340,
      "▁fab": 3341,
      "▁shut": 3342,
      "▁shaking": 3343,
      "▁skiis": 3344,
      "▁racquets": 3345,
      "▁leafy": 3346,
      "▁present": 3347,
      "▁adjus": 3348,
      "▁grocery": 3349,
      "▁cigarette": 3350,
      "ze": 3351,
      "▁4": 3352,
      "▁saying": 3353,
      "▁daytime": 3354,
      "▁grazes": 3355,
      "▁silverware": 3356,
      "▁unique": 3357,
      "eled": 3358,
      "med": 3359,
      "tru": 3360,
      "▁langu": 3361,
      "▁heal": 3362,
      "▁squat": 3363,
      "istic": 3364,
      "▁hardwood": 3365,
      "▁simple": 3366,
      "▁ears": 3367,
      "▁barrel": 3368,
      "▁order": 3369,
      "▁strip": 3370,
      "▁balancing": 3371,
      "▁football": 3372,
      "▁warning": 3373,
      "▁separate": 3374,
      "▁ath": 3375,
      "▁parrot": 3376,
      "▁blind": 3377,
      "▁lear": 3378,
      "▁crosses": 3379,
      "▁peeled": 3380,
      "za": 3381,
      "▁pand": 3382,
      "arp": 3383,
      "▁dust": 3384,
      "ests": 3385,
      "▁decoration": 3386,
      "▁cabinets,": 3387,
      "▁fauc": 3388,
      "▁produ": 3389,
      "▁peeking": 3390,
      "▁comfort": 3391,
      "▁cupboards": 3392,
      "▁wilderness": 3393,
      "▁ba": 3394,
      "▁loun": 3395,
      "▁bats": 3396,
      "▁pizza,": 3397,
      "▁scattered": 3398,
      "▁word": 3399,
      "▁awa": 3400,
      "▁safety": 3401,
      "▁savanna": 3402,
      "▁screens": 3403,
      "▁bread,": 3404,
      "▁cookie": 3405,
      "▁friend": 3406,
      "▁lounge": 3407,
      "▁fair": 3408,
      "ord": 3409,
      "▁thumb": 3410,
      "▁music": 3411,
      "▁volley": 3412,
      "where": 3413,
      "▁than": 3414,
      "▁pean": 3415,
      "▁rece": 3416,
      "▁really": 3417,
      "▁tag": 3418,
      "▁gogg": 3419,
      "ungle": 3420,
      "▁lambs": 3421,
      "▁moped": 3422,
      "▁ribbon": 3423,
      "▁fabric": 3424,
      "no": 3425,
      "▁talk": 3426,
      "▁storm": 3427,
      "▁parach": 3428,
      "▁jungle": 3429,
      "▁amount": 3430,
      "▁tourists": 3431,
      "▁bikini": 3432,
      "▁mel": 3433,
      "▁plan": 3434,
      "lers": 3435,
      "▁delivery": 3436,
      "ka": 3437,
      "▁tire": 3438,
      "▁played": 3439,
      "▁balan": 3440,
      "▁stretching": 3441,
      "▁magazine": 3442,
      "▁goggles": 3443,
      "▁sne": 3444,
      "▁ador": 3445,
      "▁logs": 3446,
      "▁television,": 3447,
      "uddle": 3448,
      "▁clutter": 3449,
      "▁terra": 3450,
      "▁circle": 3451,
      "▁indoors": 3452,
      "▁numerous": 3453,
      "▁muffin": 3454,
      "▁suspended": 3455,
      "selves": 3456,
      "ta": 3457,
      "▁wo": 3458,
      "▁fighting": 3459,
      "ided": 3460,
      "ches,": 3461,
      "▁towering": 3462,
      "aker": 3463,
      "▁sizes": 3464,
      "front": 3465,
      "▁tus": 3466,
      "anger": 3467,
      "▁link": 3468,
      "▁themselves": 3469,
      "▁monitor,": 3470,
      "▁classroom": 3471,
      "▁lim": 3472,
      "ooters": 3473,
      "▁ant": 3474,
      "ider": 3475,
      "▁skin": 3476,
      "▁street,": 3477,
      "▁fixing": 3478,
      "▁water,": 3479,
      "illing": 3480,
      "▁soap": 3481,
      "▁shorel": 3482,
      "▁oranges,": 3483,
      "▁beverages": 3484,
      "-co": 3485,
      "▁ladder": 3486,
      "▁service": 3487,
      "▁shoreline": 3488,
      "dled": 3489,
      "ha": 3490,
      "hol": 3491,
      "▁cher": 3492,
      "ilt": 3493,
      "▁scooters": 3494,
      "▁cellphones": 3495,
      "▁drawers": 3496,
      "gu": 3497,
      "▁det": 3498,
      "▁rec": 3499,
      "▁plaza": 3500,
      "▁stops": 3501,
      "▁canoe": 3502,
      "▁crane": 3503,
      "▁obstacle": 3504,
      "▁wash": 3505,
      "▁courtyard": 3506,
      "▁barri": 3507,
      "▁sticker": 3508,
      "▁pickles": 3509,
      "▁pigeons": 3510,
      "▁healthy": 3511,
      "▁bin": 3512,
      "▁strange": 3513,
      "rib": 3514,
      "▁closet": 3515,
      "▁surfs": 3516,
      "▁wear": 3517,
      "▁care": 3518,
      "▁army": 3519,
      "▁figure": 3520,
      "▁complete": 3521,
      "▁cereal": 3522,
      "aks": 3523,
      "its": 3524,
      "▁fest": 3525,
      "▁need": 3526,
      "pper": 3527,
      "▁motorcyclists": 3528,
      "▁vegetation": 3529,
      "▁pairs": 3530,
      "pass": 3531,
      "▁balloons": 3532,
      "▁panda": 3533,
      "uri": 3534,
      "▁foggy": 3535,
      "▁skyline": 3536,
      "▁trim": 3537,
      "▁scissor": 3538,
      "▁noteb": 3539,
      "▁grin": 3540,
      "paste": 3541,
      "▁tusks": 3542,
      "orting": 3543,
      "▁load": 3544,
      "resting": 3545,
      "▁toothpaste": 3546,
      "▁consisting": 3547,
      "hes,": 3548,
      "▁cone": 3549,
      "▁str": 3550,
      "▁reg": 3551,
      "▁project": 3552,
      "▁furnished": 3553,
      "▁berries": 3554,
      "▁ski's": 3555,
      "▁slightly": 3556,
      "▁photographs": 3557,
      "▁chicken,": 3558,
      "▁points": 3559,
      "▁faucet": 3560,
      "unk": 3561,
      "▁valley": 3562,
      "▁arri": 3563,
      "▁rustic": 3564,
      "▁students": 3565,
      "rat": 3566,
      "val": 3567,
      "▁burn": 3568,
      "▁shri": 3569,
      "▁bedsp": 3570,
      "▁comes": 3571,
      "▁blue,": 3572,
      "▁slow": 3573,
      "▁goal": 3574,
      "▁haul": 3575,
      "▁shops": 3576,
      "▁speakers": 3577,
      "▁act": 3578,
      "▁lob": 3579,
      "▁knit": 3580,
      "▁meeting": 3581,
      "▁silho": 3582,
      "▁onions,": 3583,
      "▁relax": 3584,
      "▁positioned": 3585,
      "▁vendor": 3586,
      "gie": 3587,
      "▁too": 3588,
      "▁nuts": 3589,
      "oose": 3590,
      "oney": 3591,
      "▁spac": 3592,
      "▁split": 3593,
      "▁portra": 3594,
      "▁dispenser": 3595,
      "▁silhou": 3596,
      "lines": 3597,
      "▁bugg": 3598,
      "▁puts": 3599,
      "▁fat": 3600,
      "▁mall": 3601,
      "▁sideways": 3602,
      "▁buns": 3603,
      "▁maj": 3604,
      "▁married": 3605,
      "▁reflecting": 3606,
      "▁softball": 3607,
      "▁observing": 3608,
      "▁shrimp": 3609,
      "▁arena": 3610,
      "▁eleg": 3611,
      "▁spla": 3612,
      "▁headed": 3613,
      "▁pedestal": 3614,
      "▁designs": 3615,
      "▁approaches": 3616,
      "shing": 3617,
      "▁may": 3618,
      "▁lis": 3619,
      "alo": 3620,
      "▁beak": 3621,
      "▁reach": 3622,
      "▁groups": 3623,
      "▁waterway": 3624,
      "▁crossed": 3625,
      "▁material": 3626,
      "▁catchers": 3627,
      "▁direct": 3628,
      "▁paddling": 3629,
      "▁teenager": 3630,
      "▁oriental": 3631,
      "uro": 3632,
      "illage": 3633,
      "▁peace": 3634,
      "▁village": 3635,
      "▁grabbing": 3636,
      "ama": 3637,
      "▁field,": 3638,
      "▁bathing": 3639,
      "▁wading": 3640,
      "▁lighted": 3641,
      "▁fully": 3642,
      "▁slicing": 3643,
      "toon": 3644,
      "wards": 3645,
      "▁illuminated": 3646,
      "-d": 3647,
      "po": 3648,
      "tie": 3649,
      "ws": 3650,
      "ret": 3651,
      "ope": 3652,
      "ebo": 3653,
      "▁caul": 3654,
      "▁alco": 3655,
      "iflower": 3656,
      "▁sailboats": 3657,
      "▁leaping": 3658,
      "▁attempts": 3659,
      "▁granite": 3660,
      "▁elegant": 3661,
      "▁min": 3662,
      "▁room,": 3663,
      "▁seven": 3664,
      "▁blur": 3665,
      "▁airlines": 3666,
      "▁conve": 3667,
      "▁fruit,": 3668,
      "▁goods": 3669,
      "▁classic": 3670,
      "▁keep": 3671,
      "-c": 3672,
      "▁wand": 3673,
      "▁seas": 3674,
      "▁caught": 3675,
      "▁oven,": 3676,
      "▁kept": 3677,
      "▁slee": 3678,
      "▁bedspread": 3679,
      "▁will": 3680,
      "▁any": 3681,
      "raying": 3682,
      "▁euro": 3683,
      "▁ware": 3684,
      "▁numbers": 3685,
      "▁microwave,": 3686,
      "▁bald": 3687,
      "▁repair": 3688,
      "▁flooded": 3689,
      "mer": 3690,
      "▁trop": 3691,
      "att": 3692,
      "▁fol": 3693,
      "▁had": 3694,
      "icle": 3695,
      "▁confe": 3696,
      "▁colle": 3697,
      "▁layer": 3698,
      "▁patterned": 3699,
      "▁cheesy": 3700,
      "▁cuc": 3701,
      "▁herding": 3702,
      "▁desks": 3703,
      "▁waving": 3704,
      "▁deer": 3705,
      "▁fixtures": 3706,
      "▁peanut": 3707,
      "▁cauliflower": 3708,
      "ls": 3709,
      "▁tight": 3710,
      "▁trough": 3711,
      "▁bor": 3712,
      "rest": 3713,
      "right": 3714,
      "▁forks": 3715,
      "▁mov": 3716,
      "rence": 3717,
      "▁drawing": 3718,
      "▁unusual": 3719,
      "▁cucumb": 3720,
      "▁bad": 3721,
      "▁leads": 3722,
      "▁tags": 3723,
      "ift": 3724,
      "▁knives": 3725,
      "▁cans": 3726,
      "▁exc": 3727,
      "▁snacks": 3728,
      "ined": 3729,
      "▁map": 3730,
      "▁much": 3731,
      "▁coast": 3732,
      "▁dried": 3733,
      "▁clus": 3734,
      "▁button": 3735,
      "▁pineapp": 3736,
      "▁second": 3737,
      "▁conversation": 3738,
      "▁interesting": 3739,
      "urious": 3740,
      "▁tropical": 3741,
      "af": 3742,
      "▁sup": 3743,
      "▁cobble": 3744,
      "▁roman": 3745,
      "▁kis": 3746,
      "▁sign,": 3747,
      "▁window,": 3748,
      "▁monument": 3749,
      "▁exam": 3750,
      "▁factor": 3751,
      "white": 3752,
      "▁terrain": 3753,
      "▁cars,": 3754,
      "▁basin": 3755,
      "▁heard": 3756,
      "boat": 3757,
      "▁doubles": 3758,
      "▁garnis": 3759,
      "▁freeway": 3760,
      "▁europe": 3761,
      "cast": 3762,
      "▁within": 3763,
      "▁man,": 3764,
      "ers,": 3765,
      "icop": 3766,
      "▁raft": 3767,
      "▁skater": 3768,
      "▁stopping": 3769,
      "▁helicop": 3770,
      "▁pattern": 3771,
      "▁,": 3772,
      "▁es": 3773,
      "▁pus": 3774,
      "▁fry": 3775,
      "▁recor": 3776,
      "▁kay": 3777,
      "▁greenery": 3778,
      "▁diam": 3779,
      "▁bagel": 3780,
      "▁boogie": 3781,
      "▁lemons": 3782,
      "▁photographer": 3783,
      "▁portrait": 3784,
      "ination": 3785,
      "labor": 3786,
      "▁poss": 3787,
      "▁waff": 3788,
      "▁conso": 3789,
      "▁unf": 3790,
      "cloth": 3791,
      "▁mouse,": 3792,
      "▁utility": 3793,
      "▁listen": 3794,
      "▁ostri": 3795,
      "ities": 3796,
      "▁come": 3797,
      "▁handing": 3798,
      "es,": 3799,
      "▁thing": 3800,
      "▁eas": 3801,
      "▁overpass": 3802,
      "ific": 3803,
      "▁piles": 3804,
      "▁parent": 3805,
      "▁quilt": 3806,
      "▁strapped": 3807,
      "▁autom": 3808,
      "▁transportation": 3809,
      "▁factory": 3810,
      "▁diamond": 3811,
      "dles": 3812,
      "dition": 3813,
      "pid": 3814,
      "▁ins": 3815,
      "▁hip": 3816,
      "▁limb": 3817,
      "▁atten": 3818,
      "▁peel": 3819,
      "▁cartoon": 3820,
      "▁histor": 3821,
      "▁plate,": 3822,
      "▁canal": 3823,
      "▁turns": 3824,
      "▁ornam": 3825,
      "▁celebrating": 3826,
      "▁massive": 3827,
      "▁site": 3828,
      "▁roaming": 3829,
      "▁tablecloth": 3830,
      "▁spraying": 3831,
      "angular": 3832,
      "▁nightstand": 3833,
      "▁print": 3834,
      "▁human": 3835,
      "▁tasting": 3836,
      "▁notebook": 3837,
      "▁convey": 3838,
      "▁hal": 3839,
      "▁stable": 3840,
      "▁now": 3841,
      "▁stance": 3842,
      "▁eight": 3843,
      "▁airbor": 3844,
      "▁drying": 3845,
      "gging": 3846,
      "▁spoons": 3847,
      "▁soldiers": 3848,
      "▁windsurf": 3849,
      "drop": 3850,
      "fts": 3851,
      "▁gives": 3852,
      "▁compan": 3853,
      "▁tape": 3854,
      "▁brief": 3855,
      "▁cellular": 3856,
      "ughter": 3857,
      "▁owl": 3858,
      "▁helicopter": 3859,
      "▁5": 3860,
      "▁hooked": 3861,
      "▁rol": 3862,
      "▁upright": 3863,
      "uld": 3864,
      "▁blu": 3865,
      "▁language": 3866,
      "▁grinding": 3867,
      "▁buggy": 3868,
      "▁conference": 3869,
      "▁cree": 3870,
      "▁recl": 3871,
      "▁shades": 3872,
      "▁elevated": 3873,
      "▁text": 3874,
      "▁prot": 3875,
      "▁prov": 3876,
      "▁curve": 3877,
      "▁english": 3878,
      "▁console": 3879,
      "oored": 3880,
      "ico": 3881,
      "▁jap": 3882,
      "▁knee": 3883,
      "▁individuals": 3884,
      "▁parasa": 3885,
      "▁figurine": 3886,
      "▁indicating": 3887,
      "▁japan": 3888,
      "vi": 3889,
      "▁mi": 3890,
      "▁elabor": 3891,
      "sticks": 3892,
      "▁jars": 3893,
      "▁wake": 3894,
      "▁div": 3895,
      "▁unlo": 3896,
      "▁polka": 3897,
      "▁jackets": 3898,
      "▁butt": 3899,
      "▁costumes": 3900,
      "▁depot": 3901,
      "▁extended": 3902,
      "▁alcohol": 3903,
      "eter": 3904,
      "ably": 3905,
      "▁eag": 3906,
      "▁backdrop": 3907,
      "▁compartment": 3908,
      "▁boarders": 3909,
      "▁dec": 3910,
      "▁seating": 3911,
      "▁speaking": 3912,
      "▁wrapper": 3913,
      "▁include": 3914,
      "▁parachute": 3915,
      "▁airborne": 3916,
      "-white": 3917,
      "hand": 3918,
      "▁tiss": 3919,
      "ised": 3920,
      "▁dro": 3921,
      "▁dog,": 3922,
      "▁weird": 3923,
      "▁area,": 3924,
      "▁camp": 3925,
      "▁circus": 3926,
      "▁learning": 3927,
      "-p": 3928,
      "▁ident": 3929,
      "▁pug": 3930,
      "oping": 3931,
      "▁rect": 3932,
      "▁fix": 3933,
      "▁cloud": 3934,
      "▁world": 3935,
      "▁canad": 3936,
      "▁cleaned": 3937,
      "ared": 3938,
      "▁bis": 3939,
      "▁crib": 3940,
      "rome": 3941,
      "▁third": 3942,
      "idy": 3943,
      "urs": 3944,
      "▁grown": 3945,
      "▁clos": 3946,
      "▁tex": 3947,
      "▁drivers": 3948,
      "▁themed": 3949,
      "▁chained": 3950,
      "▁geese": 3951,
      "▁adjusting": 3952,
      "-covered": 3953,
      "-and": 3954,
      "bag": 3955,
      "ending": 3956,
      "▁snugg": 3957,
      "▁carry": 3958,
      "▁tents": 3959,
      "▁overcast": 3960,
      "▁beach,": 3961,
      "▁wicker": 3962,
      "▁drawer": 3963,
      "▁practice": 3964,
      "▁brit": 3965,
      "▁billboard": 3966,
      "▁savannah": 3967,
      "den": 3968,
      "kins": 3969,
      "ert": 3970,
      "▁cou": 3971,
      "▁blood": 3972,
      "▁metro": 3973,
      "▁rowing": 3974,
      "▁windowsill": 3975,
      "▁crack": 3976,
      "▁winding": 3977,
      "▁youth": 3978,
      "▁oppon": 3979,
      "▁toasted": 3980,
      "▁products": 3981,
      "ula": 3982,
      "▁frying": 3983,
      "▁babies": 3984,
      "▁hangar": 3985,
      "▁love": 3986,
      "▁posts": 3987,
      "▁flav": 3988,
      "▁message": 3989,
      "▁extra": 3990,
      "▁teenage": 3991,
      "▁figurines": 3992,
      "▁customers": 3993,
      "▁squatting": 3994,
      "▁hauling": 3995,
      "ditional": 3996,
      "ole": 3997,
      "▁tim": 3998,
      "alt": 3999,
      "ened": 4000,
      "▁naked": 4001,
      "vering": 4002,
      "▁cathe": 4003,
      "▁lie": 4004,
      "▁dest": 4005,
      "▁trees,": 4006,
      "▁trio": 4007,
      "▁pens": 4008,
      "▁pathway": 4009,
      "▁mashed": 4010,
      "▁signals": 4011,
      "▁beans,": 4012,
      "▁digital": 4013,
      "▁begin": 4014,
      "▁kissing": 4015,
      "ky": 4016,
      "ode": 4017,
      "view": 4018,
      "▁such": 4019,
      "▁skil": 4020,
      "andel": 4021,
      "stone": 4022,
      "▁float": 4023,
      "scra": 4024,
      "▁farmers": 4025,
      "▁thumbs": 4026,
      "▁cathedr": 4027,
      "▁ip": 4028,
      "▁tux": 4029,
      "▁green,": 4030,
      "▁skyscra": 4031,
      "▁amid": 4032,
      "▁sofa,": 4033,
      "▁artistic": 4034,
      "▁china": 4035,
      "▁daughter": 4036,
      "▁printer": 4037,
      "▁instr": 4038,
      "▁festival": 4039,
      "▁cathedral": 4040,
      "▁pig": 4041,
      "▁grab": 4042,
      "▁disk": 4043,
      "▁headboard": 4044,
      "▁tv,": 4045,
      "▁barbed": 4046,
      "▁afric": 4047,
      "▁newly": 4048,
      "▁medium": 4049,
      "▁strawberry": 4050,
      "▁photographed": 4051,
      "▁sneakers": 4052,
      "▁blueb": 4053,
      "uched": 4054,
      "▁u": 4055,
      "▁id": 4056,
      "▁tig": 4057,
      "▁placing": 4058,
      "▁pod": 4059,
      "ational": 4060,
      "ugged": 4061,
      "▁bookcase": 4062,
      "▁scenic": 4063,
      "▁sails": 4064,
      "▁depicting": 4065,
      "▁cruise": 4066,
      "▁stroller": 4067,
      "▁uncooked": 4068,
      "▁roller": 4069,
      "▁african": 4070,
      "ipp": 4071,
      "life": 4072,
      "▁stom": 4073,
      "▁thre": 4074,
      "▁shines": 4075,
      "▁asph": 4076,
      "▁imp": 4077,
      "▁donkey": 4078,
      "▁backpacks": 4079,
      "▁interact": 4080,
      "▁multi-colored": 4081,
      "cy": 4082,
      "▁sol": 4083,
      "▁coo": 4084,
      "▁gravy": 4085,
      "▁carous": 4086,
      "▁black,": 4087,
      "▁grass,": 4088,
      "ills": 4089,
      "▁worn": 4090,
      "ude": 4091,
      "▁attract": 4092,
      "▁commode": 4093,
      "▁note": 4094,
      "▁special": 4095,
      "▁knees": 4096,
      "▁kettle": 4097,
      "▁returning": 4098,
      "▁calico": 4099,
      "▁plains": 4100,
      "▁chrome": 4101,
      "▁trip": 4102,
      "▁emb": 4103,
      "▁package": 4104,
      "▁staircase": 4105,
      "▁powdered": 4106,
      "▁competing": 4107,
      "▁major": 4108,
      "▁warehouse": 4109,
      "▁british": 4110,
      "otic": 4111,
      "urt": 4112,
      "▁rot": 4113,
      "▁towing": 4114,
      "▁logo": 4115,
      "▁emer": 4116,
      "▁chopsticks": 4117,
      "▁suite": 4118,
      "▁barrier": 4119,
      "▁lobby": 4120,
      "▁directly": 4121,
      "▁cluster": 4122,
      "▁couches,": 4123,
      "▁asphalt": 4124,
      "ai": 4125,
      "▁call": 4126,
      "▁cent": 4127,
      "▁cooks": 4128,
      "▁gy": 4129,
      "▁rob": 4130,
      "▁places": 4131,
      "▁chan": 4132,
      "▁racks": 4133,
      "▁press": 4134,
      "▁bicyclist": 4135,
      "▁marked": 4136,
      "▁barbe": 4137,
      "▁tube": 4138,
      "▁fries,": 4139,
      "▁adorned": 4140,
      "▁closely": 4141,
      "-and-white": 4142,
      "▁carousel": 4143,
      "gen": 4144,
      "ively": 4145,
      "rup": 4146,
      "▁6": 4147,
      "▁pay": 4148,
      "▁cable": 4149,
      "▁foli": 4150,
      "▁roadside": 4151,
      "▁old,": 4152,
      "▁glasses,": 4153,
      "▁banana,": 4154,
      "▁planter": 4155,
      "▁stripes": 4156,
      "▁extre": 4157,
      "▁crate": 4158,
      "truck": 4159,
      "▁conveyor": 4160,
      "▁stomach": 4161,
      "ately": 4162,
      "▁hind": 4163,
      "▁ger": 4164,
      "▁selection": 4165,
      "▁were": 4166,
      "▁conf": 4167,
      "▁runner": 4168,
      "▁potter": 4169,
      "deled": 4170,
      "▁subur": 4171,
      "▁deserted": 4172,
      "▁electrical": 4173,
      "▁shuttle": 4174,
      "▁foliage": 4175,
      "ient": 4176,
      "suit": 4177,
      "▁tatt": 4178,
      "▁puddle": 4179,
      "▁anch": 4180,
      "▁names": 4181,
      "▁ki": 4182,
      "▁frozen": 4183,
      "amb": 4184,
      "ells": 4185,
      "elly": 4186,
      "▁pocket": 4187,
      "▁scrat": 4188,
      "▁help": 4189,
      "▁rocking": 4190,
      "▁tourist": 4191,
      "▁macar": 4192,
      "▁scissors,": 4193,
      "▁super": 4194,
      "n't": 4195,
      "▁sat": 4196,
      "▁curious": 4197,
      "▁ferry": 4198,
      "▁dug": 4199,
      "▁intently": 4200,
      "▁giraffe's": 4201,
      "▁unit": 4202,
      "▁when": 4203,
      "▁entering": 4204,
      "▁rubb": 4205,
      "▁listening": 4206,
      "▁inspe": 4207,
      "▁tattoo": 4208,
      "▁mane": 4209,
      "▁trave": 4210,
      "▁sharp": 4211,
      "▁raw": 4212,
      "▁force": 4213,
      "▁slide": 4214,
      "▁envi": 4215,
      "▁stationary": 4216,
      "▁diner": 4217,
      "▁books,": 4218,
      "▁crates": 4219,
      "▁competit": 4220,
      "▁shrubs": 4221,
      "▁balances": 4222,
      "des": 4223,
      "▁tee": 4224,
      "▁ble": 4225,
      "ath": 4226,
      "▁dash": 4227,
      "ops": 4228,
      "ution": 4229,
      "▁coke": 4230,
      "▁towers": 4231,
      "▁boardwalk": 4232,
      "▁gour": 4233,
      "▁mid-": 4234,
      "▁meas": 4235,
      "ronment": 4236,
      "▁salad,": 4237,
      "▁indian": 4238,
      "▁harness": 4239,
      "▁yog": 4240,
      "▁wheelchair": 4241,
      "▁portion": 4242,
      "▁stretched": 4243,
      "▁suv": 4244,
      "▁archite": 4245,
      "▁radio": 4246,
      "▁sweet": 4247,
      "▁dusty": 4248,
      "▁ostrich": 4249,
      "▁mixt": 4250,
      "▁opponent": 4251,
      "▁environment": 4252,
      "rit": 4253,
      "▁tro": 4254,
      "▁cud": 4255,
      "▁chandel": 4256,
      "ains": 4257,
      "▁stores": 4258,
      "▁sau": 4259,
      "▁array": 4260,
      "▁leaned": 4261,
      "▁wildlife": 4262,
      "▁dual": 4263,
      "▁shoulders": 4264,
      "▁cubicle": 4265,
      "ummy": 4266,
      "▁operating": 4267,
      "▁european": 4268,
      "▁podium": 4269,
      "▁macaroni": 4270,
      "▁mixture": 4271,
      "▁ones": 4272,
      "▁gun": 4273,
      "▁thru": 4274,
      "ically": 4275,
      "▁streetlight": 4276,
      "ams": 4277,
      "▁kitchen,": 4278,
      "▁dip": 4279,
      "▁shirt,": 4280,
      "▁counter,": 4281,
      "▁midair": 4282,
      "ments": 4283,
      "▁loaf": 4284,
      "▁stepping": 4285,
      "▁paintings": 4286,
      "▁figures": 4287,
      "▁stretches": 4288,
      "▁stools": 4289,
      "▁soldier": 4290,
      "▁parasol": 4291,
      "▁antel": 4292,
      "▁blurred": 4293,
      ".v": 4294,
      "father": 4295,
      "orn": 4296,
      "▁emp": 4297,
      "▁caption": 4298,
      "▁fog": 4299,
      "ccup": 4300,
      "▁checks": 4301,
      "▁dressing": 4302,
      "▁keys": 4303,
      "▁maroon": 4304,
      "▁partly": 4305,
      "▁artwork": 4306,
      "▁rubbing": 4307,
      "▁starting": 4308,
      "▁silhouette": 4309,
      "▁tuxed": 4310,
      "▁tiger": 4311,
      "▁try": 4312,
      "▁mes": 4313,
      "alle": 4314,
      "lain": 4315,
      "▁necks": 4316,
      "cept": 4317,
      "▁tagged": 4318,
      "▁def": 4319,
      "▁speeding": 4320,
      "▁clown": 4321,
      "▁refrigerators": 4322,
      "▁children's": 4323,
      "▁serves": 4324,
      "▁policeman": 4325,
      "▁stalls": 4326,
      "▁crouching": 4327,
      "▁lettuce,": 4328,
      "▁express": 4329,
      "▁fingers": 4330,
      "▁skillet": 4331,
      "▁gym": 4332,
      "-st": 4333,
      "▁nest": 4334,
      "▁peering": 4335,
      "▁rode": 4336,
      "▁vac": 4337,
      "▁ships": 4338,
      "amas": 4339,
      "▁black-and-white": 4340,
      "▁walls,": 4341,
      "▁tie,": 4342,
      "rong": 4343,
      "▁paj": 4344,
      "▁quick": 4345,
      "like": 4346,
      "▁spotted": 4347,
      "▁angle": 4348,
      "▁infant": 4349,
      "▁grandfather": 4350,
      "▁spacious": 4351,
      "▁pineapple": 4352,
      "▁elaborate": 4353,
      "▁rectangular": 4354,
      "cue": 4355,
      "▁nur": 4356,
      "▁flipping": 4357,
      "▁signage": 4358,
      "▁demon": 4359,
      "▁floats": 4360,
      "▁camera,": 4361,
      "▁curved": 4362,
      "▁uniformed": 4363,
      "▁shots": 4364,
      "▁syrup": 4365,
      "▁priv": 4366,
      "▁cherry": 4367,
      "▁texting": 4368,
      "ye": 4369,
      "ino": 4370,
      "▁ox": 4371,
      "▁bump": 4372,
      "▁bamb": 4373,
      "▁cast": 4374,
      "▁inform": 4375,
      "▁touch": 4376,
      "▁dipping": 4377,
      "▁hat,": 4378,
      "▁feeds": 4379,
      "▁jeep": 4380,
      "▁remodeled": 4381,
      "▁shrubb": 4382,
      "▁else": 4383,
      "▁athlet": 4384,
      "▁movie": 4385,
      "▁cobblestone": 4386,
      "▁tissue": 4387,
      "▁bamboo": 4388,
      "ales": 4389,
      "emb": 4390,
      "ou": 4391,
      "atula": 4392,
      "▁needs": 4393,
      "▁younger": 4394,
      "▁junk": 4395,
      "▁rings": 4396,
      "▁handic": 4397,
      "▁spatula": 4398,
      "acting": 4399,
      "▁meats": 4400,
      "▁washer": 4401,
      "▁sofas": 4402,
      "▁apart": 4403,
      "▁outfits": 4404,
      "▁muffins": 4405,
      "plane": 4406,
      "▁skinny": 4407,
      "▁excited": 4408,
      "-like": 4409,
      "car": 4410,
      "inished": 4411,
      "▁tuck": 4412,
      "▁tidy": 4413,
      "▁si": 4414,
      "▁san": 4415,
      "▁stump": 4416,
      "▁dozen": 4417,
      "▁holid": 4418,
      "celain": 4419,
      "acks": 4420,
      "▁grassland": 4421,
      "▁mountainous": 4422,
      "▁hitter": 4423,
      "▁lodge": 4424,
      "▁keyboards": 4425,
      "▁claim": 4426,
      "ibly": 4427,
      "▁sprinkled": 4428,
      "▁peppers,": 4429,
      "▁porcelain": 4430,
      "▁teenagers": 4431,
      "lat": 4432,
      "▁aven": 4433,
      "▁mural": 4434,
      "▁hut": 4435,
      "▁ton": 4436,
      "▁somewhere": 4437,
      "▁weeds": 4438,
      "▁menu": 4439,
      "▁unri": 4440,
      "▁stunts": 4441,
      "-in": 4442,
      "field": 4443,
      "▁ave": 4444,
      "▁fer": 4445,
      "▁gaming": 4446,
      "▁start": 4447,
      "utes": 4448,
      "icip": 4449,
      "▁plush": 4450,
      "▁sauc": 4451,
      "▁kno": 4452,
      "▁stacks": 4453,
      "▁balance": 4454,
      "▁craft": 4455,
      "▁farmer": 4456,
      "▁bacon,": 4457,
      "▁pajamas": 4458,
      "▁shrubbery": 4459,
      "ckets": 4460,
      "▁rough": 4461,
      "▁zebra's": 4462,
      "▁yellow,": 4463,
      "▁viewed": 4464,
      "▁clearing": 4465,
      "▁engaged": 4466,
      "▁letter": 4467,
      "▁biker": 4468,
      "▁glowing": 4469,
      "▁spots": 4470,
      "▁pigeon": 4471,
      "▁furnishing": 4472,
      "▁japanese": 4473,
      "▁identical": 4474,
      "▁rubber": 4475,
      "▁gourmet": 4476,
      "▁avenue": 4477,
      "fall": 4478,
      "ma": 4479,
      "mar": 4480,
      "pers": 4481,
      "sa": 4482,
      "▁ran": 4483,
      "▁pork": 4484,
      "▁done": 4485,
      "▁goo": 4486,
      "ilted": 4487,
      "▁real": 4488,
      "▁shred": 4489,
      "▁upward": 4490,
      "▁ram": 4491,
      "▁jelly": 4492,
      "▁skiier": 4493,
      "▁led": 4494,
      "▁cake,": 4495,
      "▁treat": 4496,
      "▁viewing": 4497,
      "▁letting": 4498,
      "▁blinds": 4499,
      "▁awaiting": 4500,
      "▁unfinished": 4501,
      "fo": 4502,
      "ora": 4503,
      "▁lime": 4504,
      "alled": 4505,
      "unch": 4506,
      "ots": 4507,
      "▁reno": 4508,
      "▁traditional": 4509,
      "umn": 4510,
      "▁alarm": 4511,
      "▁banner": 4512,
      "▁bowling": 4513,
      "ushi": 4514,
      "▁bicyclists": 4515,
      "▁mean": 4516,
      "▁carriages": 4517,
      "▁appliance": 4518,
      "▁entree": 4519,
      "▁suburban": 4520,
      "obile": 4521,
      "▁sushi": 4522,
      "▁wool": 4523,
      "▁pil": 4524,
      "▁file": 4525,
      "▁dam": 4526,
      "▁bathroom,": 4527,
      "▁motel": 4528,
      "▁there's": 4529,
      "aging": 4530,
      "▁bunny": 4531,
      "▁mail": 4532,
      "▁bigger": 4533,
      "ipe": 4534,
      "▁united": 4535,
      "▁contra": 4536,
      "▁lining": 4537,
      "shield": 4538,
      "▁crouched": 4539,
      "▁grind": 4540,
      "▁celery": 4541,
      "▁chandelier": 4542,
      "▁holiday": 4543,
      "-b": 4544,
      "▁fuzz": 4545,
      "▁moored": 4546,
      "▁peas": 4547,
      "▁doz": 4548,
      "▁hear": 4549,
      "▁windshield": 4550,
      "▁swung": 4551,
      "▁cutter": 4552,
      "▁haw": 4553,
      "▁pitched": 4554,
      "▁stripped": 4555,
      "▁iced": 4556,
      "▁lifting": 4557,
      "▁cooling": 4558,
      "▁automobile": 4559,
      "▁german": 4560,
      "▁fuzzy": 4561,
      "off": 4562,
      "▁tying": 4563,
      "▁dancing": 4564,
      "▁roas": 4565,
      "▁york": 4566,
      "▁rabb": 4567,
      "▁ottom": 4568,
      "▁tech": 4569,
      "▁teaching": 4570,
      "▁locked": 4571,
      "▁barren": 4572,
      "▁penc": 4573,
      "▁shapes": 4574,
      "▁garlic": 4575,
      "▁outfield": 4576,
      "▁happily": 4577,
      "▁bulls": 4578,
      "▁hiking": 4579,
      "▁plent": 4580,
      "▁esc": 4581,
      "▁protest": 4582,
      "▁buttons": 4583,
      "pris": 4584,
      "▁t.v": 4585,
      "▁bid": 4586,
      "▁fit": 4587,
      "▁parts": 4588,
      "▁compact": 4589,
      "▁towed": 4590,
      "▁altered": 4591,
      "▁bench,": 4592,
      "▁opens": 4593,
      "▁maker": 4594,
      "▁floor,": 4595,
      "▁orange,": 4596,
      "▁breaking": 4597,
      "▁forested": 4598,
      "▁engines": 4599,
      "▁equipped": 4600,
      "▁fireplace,": 4601,
      "▁baref": 4602,
      "▁separated": 4603,
      "▁possibly": 4604,
      "▁attractive": 4605,
      "yed": 4606,
      "▁king": 4607,
      "▁que": 4608,
      "▁mer": 4609,
      "▁cock": 4610,
      "▁tram": 4611,
      "▁rim": 4612,
      "▁pies": 4613,
      "▁grouped": 4614,
      "▁sinks,": 4615,
      "▁wallp": 4616,
      "▁old-f": 4617,
      "▁handles": 4618,
      "▁attent": 4619,
      "izon": 4620,
      "▁pengu": 4621,
      "▁crest": 4622,
      "▁cubs": 4623,
      "▁old-fashion": 4624,
      "cuit": 4625,
      "gn": 4626,
      "▁summ": 4627,
      "▁shag": 4628,
      "andal": 4629,
      "▁playground": 4630,
      "▁lead": 4631,
      "▁handbag": 4632,
      "▁foam": 4633,
      "▁treats": 4634,
      "dless": 4635,
      "▁aged": 4636,
      "▁stripe": 4637,
      "▁feathers": 4638,
      "▁bathtub,": 4639,
      "▁local": 4640,
      "▁blocks": 4641,
      "▁falls": 4642,
      "▁mushrooms,": 4643,
      "▁navy": 4644,
      "▁eagle": 4645,
      "▁yogurt": 4646,
      "▁tuxedo": 4647,
      "▁old-fashioned": 4648,
      "-t": 4649,
      "het": 4650,
      "▁cot": 4651,
      "▁fle": 4652,
      "▁fut": 4653,
      "▁hanger": 4654,
      "onal": 4655,
      "▁walled": 4656,
      "▁wall,": 4657,
      "▁plates,": 4658,
      "▁holes": 4659,
      "▁grizz": 4660,
      "▁wrap": 4661,
      "▁interacting": 4662,
      "▁silly": 4663,
      "▁hoodie": 4664,
      "aves": 4665,
      "een": 4666,
      "green": 4667,
      "▁pir": 4668,
      "▁whipped": 4669,
      "▁vic": 4670,
      "▁vandal": 4671,
      "▁outst": 4672,
      "tern": 4673,
      "▁horned": 4674,
      "▁bends": 4675,
      "acent": 4676,
      "▁blocking": 4677,
      "▁sausages": 4678,
      "▁expo": 4679,
      "▁butterf": 4680,
      "▁hipster": 4681,
      "▁company": 4682,
      "▁biscuit": 4683,
      "▁furnishings": 4684,
      "▁dozens": 4685,
      "▁ottoman": 4686,
      "flow": 4687,
      "▁situ": 4688,
      "▁pears": 4689,
      "▁champ": 4690,
      "▁signs,": 4691,
      "▁horizon": 4692,
      "▁zone": 4693,
      "▁alumin": 4694,
      "▁flowered": 4695,
      "▁guests": 4696,
      "▁steer": 4697,
      "▁panel": 4698,
      "▁females": 4699,
      "▁necktie": 4700,
      "▁chickens": 4701,
      "▁powered": 4702,
      "▁letters": 4703,
      "▁adjacent": 4704,
      "▁pottery": 4705,
      "▁dugout": 4706,
      "▁shaggy": 4707,
      "noon": 4708,
      "thing": 4709,
      "ually": 4710,
      "▁tul": 4711,
      "▁sled": 4712,
      "▁pane": 4713,
      "▁hun": 4714,
      "▁hud": 4715,
      "▁dun": 4716,
      "rie": 4717,
      "▁pipes": 4718,
      "▁grasses": 4719,
      "▁air,": 4720,
      "imate": 4721,
      "▁poised": 4722,
      "▁toiletries": 4723,
      "▁men's": 4724,
      "▁scale": 4725,
      "▁ridding": 4726,
      "▁adm": 4727,
      "▁perches": 4728,
      "▁setup": 4729,
      "▁lamp,": 4730,
      "ooth": 4731,
      "▁sauce,": 4732,
      "▁afternoon": 4733,
      "▁visit": 4734,
      "▁bullet": 4735,
      "▁followed": 4736,
      "▁halves": 4737,
      "▁windsurfing": 4738,
      "▁unloading": 4739,
      "▁emplo": 4740,
      "▁aluminum": 4741,
      "-l": 4742,
      "▁pal": 4743,
      "▁tables,": 4744,
      "▁surpris": 4745,
      "▁waterfall": 4746,
      "▁skates": 4747,
      "▁conte": 4748,
      "▁slides": 4749,
      "▁asc": 4750,
      "box": 4751,
      "▁firetruck": 4752,
      "▁theme": 4753,
      "▁mem": 4754,
      "▁pitchers": 4755,
      "▁pointed": 4756,
      "▁stained": 4757,
      "vention": 4758,
      "▁retrie": 4759,
      "▁called": 4760,
      "▁avoc": 4761,
      "▁parasailing": 4762,
      "▁ipod": 4763,
      "▁plenty": 4764,
      "▁outstret": 4765,
      "▁contemp": 4766,
      "▁7": 4767,
      "▁oil": 4768,
      "▁money": 4769,
      "illed": 4770,
      "▁woman,": 4771,
      "▁watched": 4772,
      "ulated": 4773,
      "▁cong": 4774,
      "▁swans": 4775,
      "▁preten": 4776,
      "▁hilly": 4777,
      "▁mark": 4778,
      "▁tort": 4779,
      "▁strings": 4780,
      "▁folding": 4781,
      "▁provide": 4782,
      "▁interactive": 4783,
      "▁unripe": 4784,
      "▁avocad": 4785,
      "park": 4786,
      "yond": 4787,
      "▁tug": 4788,
      "▁pets": 4789,
      "ana": 4790,
      "▁gall": 4791,
      "▁manne": 4792,
      "▁beyond": 4793,
      "▁robe": 4794,
      "uments": 4795,
      "▁bus,": 4796,
      "▁bedding": 4797,
      "▁heels": 4798,
      "▁road,": 4799,
      "▁spar": 4800,
      "▁swan": 4801,
      "▁socks": 4802,
      "acter": 4803,
      "▁marsh": 4804,
      "▁stew": 4805,
      "▁leave": 4806,
      "wear": 4807,
      "izing": 4808,
      "▁notes": 4809,
      "▁belong": 4810,
      "▁distant": 4811,
      "▁pads": 4812,
      "▁delta": 4813,
      "ivity": 4814,
      "▁dolls": 4815,
      "▁mixing": 4816,
      "▁cycles": 4817,
      "▁humming": 4818,
      "▁saddle": 4819,
      "▁vandalized": 4820,
      "▁outstretched": 4821,
      "bee": 4822,
      "ua": 4823,
      "▁page": 4824,
      "▁cit": 4825,
      "er,": 4826,
      "ern": 4827,
      "alks": 4828,
      "▁coats": 4829,
      "▁roast": 4830,
      "▁poking": 4831,
      "▁shed": 4832,
      "▁refe": 4833,
      "▁dinning": 4834,
      "▁directing": 4835,
      "▁flatbed": 4836,
      "mbers": 4837,
      "▁sweatshirt": 4838,
      "▁character": 4839,
      "▁comfortable": 4840,
      "▁sleek": 4841,
      "▁antelope": 4842,
      "▁mannequ": 4843,
      "bu": 4844,
      "▁cyclist": 4845,
      "▁dom": 4846,
      "law": 4847,
      "▁pear": 4848,
      "▁peeling": 4849,
      "▁coles": 4850,
      "▁ever": 4851,
      "▁relish": 4852,
      "▁carn": 4853,
      "▁wax": 4854,
      "▁convention": 4855,
      "▁rh": 4856,
      "▁spro": 4857,
      "▁diving": 4858,
      "▁wheeled": 4859,
      "▁iphone": 4860,
      "▁accents": 4861,
      "▁wandering": 4862,
      "▁cooler": 4863,
      "▁quickly": 4864,
      "▁bidet": 4865,
      "flowers": 4866,
      "▁coleslaw": 4867,
      "-w": 4868,
      "vily": 4869,
      "▁nut": 4870,
      "ilar": 4871,
      "iced": 4872,
      "▁could": 4873,
      "▁vast": 4874,
      "▁carved": 4875,
      "ugs": 4876,
      "▁caution": 4877,
      "▁roads": 4878,
      "▁span": 4879,
      "▁bricks": 4880,
      "▁driven": 4881,
      "▁unable": 4882,
      "▁club": 4883,
      "▁corral": 4884,
      "▁cabbage": 4885,
      "▁members": 4886,
      "▁pillar": 4887,
      "mbol": 4888,
      "▁gliding": 4889,
      "▁symbol": 4890,
      "▁similar": 4891,
      "▁consum": 4892,
      "▁heavily": 4893,
      "▁descri": 4894,
      "▁barefoot": 4895,
      "▁grizzly": 4896,
      "mel": 4897,
      "og": 4898,
      "▁ult": 4899,
      "▁bb": 4900,
      "▁brus": 4901,
      "▁cola": 4902,
      "▁plow": 4903,
      "str": 4904,
      "▁sewing": 4905,
      "tled": 4906,
      "▁aspar": 4907,
      "▁stocked": 4908,
      "▁cord": 4909,
      "▁ovens": 4910,
      "▁steering": 4911,
      "▁decked": 4912,
      "▁speaker": 4913,
      "▁sausage,": 4914,
      "▁numerals": 4915,
      "▁cops": 4916,
      "▁inflat": 4917,
      "▁those": 4918,
      "▁anchored": 4919,
      "▁measuring": 4920,
      "▁rabbit": 4921,
      "▁situated": 4922,
      "▁inflatable": 4923,
      "ache": 4924,
      "pan": 4925,
      "▁oval": 4926,
      "▁miss": 4927,
      "ics": 4928,
      "▁route": 4929,
      "▁plugged": 4930,
      "▁smooth": 4931,
      "▁up,": 4932,
      "▁nearly": 4933,
      "▁airline": 4934,
      "▁temp": 4935,
      "▁social": 4936,
      "▁midst": 4937,
      "achers": 4938,
      "▁exit": 4939,
      "▁assemb": 4940,
      "▁news": 4941,
      "▁location": 4942,
      "▁kneels": 4943,
      "berries": 4944,
      "▁crouches": 4945,
      "▁portable": 4946,
      "▁raising": 4947,
      "▁liquor": 4948,
      "▁slab": 4949,
      "▁kiw": 4950,
      "▁demonstr": 4951,
      "ien": 4952,
      "▁tr": 4953,
      "▁pel": 4954,
      "▁pant": 4955,
      "▁hom": 4956,
      "▁mantle": 4957,
      "chan": 4958,
      "▁share": 4959,
      "▁snow-covered": 4960,
      "▁lego": 4961,
      "▁capped": 4962,
      "▁complet": 4963,
      "▁brown,": 4964,
      "▁moon": 4965,
      "▁storefront": 4966,
      "▁19": 4967,
      "▁gazel": 4968,
      "▁melted": 4969,
      "▁embra": 4970,
      "▁private": 4971,
      "▁champag": 4972,
      "▁tortilla": 4973,
      "-sh": 4974,
      "book": 4975,
      "can": 4976,
      "▁tet": 4977,
      "▁overs": 4978,
      "▁pon": 4979,
      "▁on,": 4980,
      "▁incoming": 4981,
      "▁lion": 4982,
      "▁state": 4983,
      "▁stating": 4984,
      "▁rel": 4985,
      "▁jam": 4986,
      "▁herbs": 4987,
      "▁backwards": 4988,
      "▁bend": 4989,
      "▁lights,": 4990,
      "agus": 4991,
      "vest": 4992,
      "▁biplane": 4993,
      "▁hydrants": 4994,
      "▁flowers,": 4995,
      "▁current": 4996,
      "▁helps": 4997,
      "arth": 4998,
      "▁carrier": 4999,
      "▁cards": 5000,
      "▁smartphone": 5001,
      "▁noodles,": 5002,
      "▁finished": 5003,
      "▁bites": 5004,
      "▁dashboard": 5005,
      "▁mid-air": 5006,
      "▁tulips": 5007,
      "▁asparagus": 5008,
      "▁champagne": 5009,
      "aff": 5010,
      "band": 5011,
      "hua": 5012,
      "yle": 5013,
      "inger": 5014,
      "lete": 5015,
      "ishes": 5016,
      "ased": 5017,
      "▁areas": 5018,
      "▁reve": 5019,
      "▁rolled": 5020,
      "▁ital": 5021,
      "▁shaded": 5022,
      "▁smelling": 5023,
      "▁training": 5024,
      "▁sex": 5025,
      "▁building,": 5026,
      "▁scru": 5027,
      "▁broad": 5028,
      "▁stem": 5029,
      "▁ramps": 5030,
      "▁layered": 5031,
      "▁smiley": 5032,
      "▁croiss": 5033,
      "▁discus": 5034,
      "▁casser": 5035,
      "▁mopeds": 5036,
      "ountry": 5037,
      "▁briefcase": 5038,
      "▁times": 5039,
      "▁threw": 5040,
      "▁wallpaper": 5041,
      "▁sparse": 5042,
      "con": 5043,
      "osing": 5044,
      "ense": 5045,
      "orary": 5046,
      "▁boun": 5047,
      "▁appet": 5048,
      "▁plated": 5049,
      "▁mex": 5050,
      "▁meals": 5051,
      "▁faced": 5052,
      "▁powder": 5053,
      "▁chopping": 5054,
      "▁price": 5055,
      "▁shake": 5056,
      "▁motorbikes": 5057,
      "▁leaps": 5058,
      "▁though": 5059,
      "▁slowly": 5060,
      "▁knitted": 5061,
      "▁crackers": 5062,
      "▁travelers": 5063,
      "▁rodeo": 5064,
      "▁bbq": 5065,
      "bird": 5066,
      "vd": 5067,
      "vet": 5068,
      "iner": 5069,
      "▁wre": 5070,
      "▁won": 5071,
      "▁crown": 5072,
      "▁dorm": 5073,
      "oms": 5074,
      "▁nes": 5075,
      "▁nuzz": 5076,
      "▁coin": 5077,
      "▁ske": 5078,
      "▁grape": 5079,
      "▁sco": 5080,
      "▁posters": 5081,
      "▁strike": 5082,
      "▁machines": 5083,
      "▁installed": 5084,
      "▁brand": 5085,
      "▁materials": 5086,
      "▁pushed": 5087,
      "yl": 5088,
      "▁mor": 5089,
      "ower": 5090,
      "iring": 5091,
      "▁whit": 5092,
      "▁thats": 5093,
      "amese": 5094,
      "▁rams": 5095,
      "▁rasp": 5096,
      "▁cages": 5097,
      "▁spre": 5098,
      "▁soaring": 5099,
      "eaten": 5100,
      "▁cords": 5101,
      "▁cross-c": 5102,
      "▁prepar": 5103,
      "▁meatball": 5104,
      "▁cheesecake": 5105,
      "▁catcher,": 5106,
      "▁squash": 5107,
      "▁landed": 5108,
      "▁soup,": 5109,
      "▁croche": 5110,
      "▁medical": 5111,
      "▁celebration": 5112,
      "▁combination": 5113,
      "▁protective": 5114,
      "▁kayak": 5115,
      "▁creek": 5116,
      "▁emergen": 5117,
      "▁scratching": 5118,
      "▁information": 5119,
      "▁casserole": 5120,
      "▁instruction": 5121,
      "▁filling": 5122,
      "▁lon": 5123,
      "▁stare": 5124,
      "ids": 5125,
      "▁watermel": 5126,
      "▁caged": 5127,
      "▁elephant's": 5128,
      "▁soaked": 5129,
      "▁perf": 5130,
      "▁polo": 5131,
      "▁nothing": 5132,
      "▁crumb": 5133,
      "▁mixer": 5134,
      "▁mustache": 5135,
      "▁sculptures": 5136,
      "▁rise": 5137,
      "▁tucked": 5138,
      "▁pirate": 5139,
      "▁huddled": 5140,
      "▁completely": 5141,
      "▁emergency": 5142,
      "▁dad": 5143,
      "ury": 5144,
      "▁coca": 5145,
      "▁paralle": 5146,
      "▁chip": 5147,
      "▁tending": 5148,
      "▁airfield": 5149,
      "▁clock,": 5150,
      "▁sour": 5151,
      "▁stock": 5152,
      "▁skatepark": 5153,
      "▁colorfully": 5154,
      "▁serious": 5155,
      "▁banana's": 5156,
      "▁flaming": 5157,
      "▁takeoff": 5158,
      "▁veggie": 5159,
      "▁opposing": 5160,
      "▁studio": 5161,
      "▁labeled": 5162,
      "▁washington": 5163,
      "▁jockeys": 5164,
      "▁athlete": 5165,
      "▁canadian": 5166,
      "▁maneu": 5167,
      "▁surprised": 5168,
      "▁avocado": 5169,
      "▁cross-country": 5170,
      "tra": 5171,
      "▁tusk": 5172,
      "▁ol": 5173,
      "▁brow": 5174,
      "▁cram": 5175,
      "▁cyclists": 5176,
      "▁ges": 5177,
      "▁las": 5178,
      "▁touches": 5179,
      "▁rapid": 5180,
      "▁basil": 5181,
      "▁outside,": 5182,
      "▁spag": 5183,
      "angle": 5184,
      "▁dresses": 5185,
      "▁cabinetry": 5186,
      "▁lower": 5187,
      "▁dragon": 5188,
      "▁angry": 5189,
      "▁buffalo": 5190,
      "▁college": 5191,
      "▁border": 5192,
      "▁waffles": 5193,
      "▁beginning": 5194,
      "▁summer": 5195,
      "hetti": 5196,
      "mely": 5197,
      "▁er": 5198,
      "▁tick": 5199,
      "▁oly": 5200,
      "end": 5201,
      "▁vert": 5202,
      "▁year": 5203,
      "▁upper": 5204,
      "▁taped": 5205,
      "anging": 5206,
      "▁brocol": 5207,
      "▁perch": 5208,
      "▁allow": 5209,
      "▁cemet": 5210,
      "▁squir": 5211,
      "▁singing": 5212,
      "▁tires": 5213,
      "▁accom": 5214,
      "▁charact": 5215,
      "▁bookshelves": 5216,
      "▁printed": 5217,
      "▁canoes": 5218,
      "▁grapes,": 5219,
      "▁presentation": 5220,
      "▁comfortably": 5221,
      "▁volleyball": 5222,
      "▁historic": 5223,
      "▁instruments": 5224,
      "▁bleachers": 5225,
      "▁lonely": 5226,
      "▁parallel": 5227,
      "▁spaghetti": 5228,
      "▁olymp": 5229,
      "▁brocolli": 5230,
      "▁oncoming": 5231,
      "arn": 5232,
      "aling": 5233,
      "▁down,": 5234,
      "sters": 5235,
      "rely": 5236,
      "▁conver": 5237,
      "aped": 5238,
      "▁bron": 5239,
      "▁tiered": 5240,
      "▁camping": 5241,
      "▁best": 5242,
      "▁stems": 5243,
      "▁shelving": 5244,
      "▁clearly": 5245,
      "▁makeup": 5246,
      "▁carpeted": 5247,
      "▁mugs": 5248,
      "▁draped": 5249,
      "▁recei": 5250,
      "▁extremely": 5251,
      "▁gesture": 5252,
      "▁characters": 5253,
      ".s": 5254,
      "ki": 5255,
      "uting": 5256,
      "▁aqu": 5257,
      "▁instru": 5258,
      "▁fill": 5259,
      "▁non": 5260,
      "▁twig": 5261,
      "▁rele": 5262,
      "▁car,": 5263,
      "▁fields": 5264,
      "▁bushel": 5265,
      "▁umbrella,": 5266,
      "▁shep": 5267,
      "▁know": 5268,
      "▁marking": 5269,
      "▁somebo": 5270,
      "▁crew": 5271,
      "▁featured": 5272,
      "▁entry": 5273,
      "▁stretch": 5274,
      "▁tomato,": 5275,
      "▁limit": 5276,
      "▁relaxes": 5277,
      "▁garnish": 5278,
      "▁parents": 5279,
      "▁blueberries": 5280,
      "▁sauces": 5281,
      "ouf": 5282,
      "▁somebody": 5283,
      "ex": 5284,
      "vil": 5285,
      "▁sight": 5286,
      "▁ome": 5287,
      "atic": 5288,
      "▁honey": 5289,
      "▁nine": 5290,
      "ote": 5291,
      "igating": 5292,
      "▁skull": 5293,
      "▁yarn": 5294,
      "▁ends": 5295,
      "aco": 5296,
      "▁camouf": 5297,
      "▁cloudless": 5298,
      "▁states": 5299,
      "▁tanger": 5300,
      "lined": 5301,
      "▁department": 5302,
      "▁chains": 5303,
      "▁glides": 5304,
      "▁president": 5305,
      "▁nav": 5306,
      "▁shaving": 5307,
      "▁season": 5308,
      "▁queen": 5309,
      "▁penguin": 5310,
      "▁preparation": 5311,
      "du": 5312,
      "eler": 5313,
      "kn": 5314,
      "min": 5315,
      "▁&": 5316,
      "▁aler": 5317,
      "▁occup": 5318,
      "▁wrest": 5319,
      "▁hur": 5320,
      "▁deb": 5321,
      "▁yet": 5322,
      "▁top,": 5323,
      "▁dog's": 5324,
      "▁side,": 5325,
      "▁rand": 5326,
      "▁sporting": 5327,
      "▁mountainside": 5328,
      "▁nighttime": 5329,
      "▁coffee,": 5330,
      "▁polit": 5331,
      "▁amb": 5332,
      "▁greeting": 5333,
      "▁darkened": 5334,
      "▁picked": 5335,
      "▁directional": 5336,
      "▁quite": 5337,
      "▁student": 5338,
      "▁gazing": 5339,
      "▁change": 5340,
      "▁barbecue": 5341,
      "▁shredded": 5342,
      "▁mexican": 5343,
      "▁perfect": 5344,
      "itch": 5345,
      "▁cozy": 5346,
      "undred": 5347,
      "▁boul": 5348,
      "▁snow,": 5349,
      "▁horn": 5350,
      "▁windy": 5351,
      "▁south": 5352,
      "▁appe": 5353,
      "▁sidewalk,": 5354,
      "▁book,": 5355,
      "▁apple,": 5356,
      "▁styled": 5357,
      "▁paddles": 5358,
      "▁artific": 5359,
      "▁crashing": 5360,
      "▁choppy": 5361,
      "▁toast,": 5362,
      "▁consists": 5363,
      "▁extends": 5364,
      "▁everyone": 5365,
      "▁everything": 5366,
      "▁ceremon": 5367,
      "what": 5368,
      "▁follows": 5369,
      "▁regular": 5370,
      "▁projector": 5371,
      "▁easy": 5372,
      "▁expression": 5373,
      "▁siamese": 5374,
      "▁referee": 5375,
      "▁ultimate": 5376,
      "zing": 5377,
      "▁tarp": 5378,
      "▁oct": 5379,
      "▁hundred": 5380,
      "▁got": 5381,
      "eties": 5382,
      "▁wallet": 5383,
      "▁buildings,": 5384,
      "▁give": 5385,
      "▁lens": 5386,
      "▁pregn": 5387,
      "▁varieties": 5388,
      "▁friz": 5389,
      "▁breast": 5390,
      "▁curly": 5391,
      "▁boot": 5392,
      "▁musical": 5393,
      "▁steamed": 5394,
      "▁presents": 5395,
      "▁lifts": 5396,
      "▁barrels": 5397,
      "▁deta": 5398,
      "▁saucer": 5399,
      "▁exposed": 5400,
      "▁evergreen": 5401,
      "▁tethered": 5402,
      "feter": 5403,
      "ners": 5404,
      "wning": 5405,
      "▁aim": 5406,
      "▁oak": 5407,
      "ises": 5408,
      "▁st.": 5409,
      "rab": 5410,
      "▁rod": 5411,
      "▁strewn": 5412,
      "▁grow": 5413,
      "▁somewhat": 5414,
      "▁busines": 5415,
      "▁motorized": 5416,
      "▁cafeter": 5417,
      "▁court,": 5418,
      "▁flowing": 5419,
      "▁arched": 5420,
      "estri": 5421,
      "▁\"st": 5422,
      "▁policemen": 5423,
      "▁official": 5424,
      "▁early": 5425,
      "▁pasta,": 5426,
      "▁napkins": 5427,
      "▁enjoys": 5428,
      "▁icy": 5429,
      "▁stirring": 5430,
      "▁begins": 5431,
      "▁bundle": 5432,
      "▁arriving": 5433,
      "▁waffle": 5434,
      "▁competitive": 5435,
      "▁damaged": 5436,
      "▁butterfly": 5437,
      "▁morning": 5438,
      "▁omelet": 5439,
      "▁artificial": 5440,
      "cot": 5441,
      "the": 5442,
      "zard": 5443,
      "▁lux": 5444,
      "▁today": 5445,
      "▁ni": 5446,
      "▁peaco": 5447,
      "▁rese": 5448,
      "▁rounding": 5449,
      "▁vi": 5450,
      "▁trainer": 5451,
      "▁sep": 5452,
      "▁windows,": 5453,
      "▁metrop": 5454,
      "atory": 5455,
      "▁mechan": 5456,
      "▁curvy": 5457,
      "▁microwaves": 5458,
      "▁neckla": 5459,
      "▁deserts": 5460,
      "▁ham,": 5461,
      "▁taxis": 5462,
      "▁belly": 5463,
      "▁awning": 5464,
      "▁sniffs": 5465,
      "▁burning": 5466,
      "▁watermelon": 5467,
      "▁olive": 5468,
      "▁random": 5469,
      "▁pregnant": 5470,
      "▁cafeteria": 5471,
      "dant": 5472,
      "nam": 5473,
      "oram": 5474,
      "oise": 5475,
      "uis": 5476,
      "vation": 5477,
      "▁'": 5478,
      "▁telling": 5479,
      "▁sanding": 5480,
      "▁bins": 5481,
      "itan": 5482,
      "▁pac": 5483,
      "▁invest": 5484,
      "▁hook": 5485,
      "▁gad": 5486,
      "rid": 5487,
      "▁peers": 5488,
      "▁beat": 5489,
      "▁vests": 5490,
      "ament": 5491,
      "▁dogs,": 5492,
      "▁mote": 5493,
      "▁sword": 5494,
      "▁camper": 5495,
      "▁cameras": 5496,
      "▁knife,": 5497,
      "▁exiting": 5498,
      "▁\"s": 5499,
      "▁overlooks": 5500,
      "▁support": 5501,
      "▁medic": 5502,
      "▁turqu": 5503,
      "▁bulld": 5504,
      "▁everywhere": 5505,
      "▁carnival": 5506,
      "▁italian": 5507,
      "▁businesses": 5508,
      "▁sepia": 5509,
      "▁tide": 5510,
      "▁west": 5511,
      "▁pale": 5512,
      "▁cry": 5513,
      "ara": 5514,
      "▁filed": 5515,
      "▁my": 5516,
      "▁stars": 5517,
      "lapid": 5518,
      "rict": 5519,
      "▁shady": 5520,
      "▁flan": 5521,
      "▁buckets": 5522,
      "aint": 5523,
      "▁skiiers": 5524,
      "▁tree,": 5525,
      "▁jumped": 5526,
      "▁obama": 5527,
      "▁equestri": 5528,
      "▁doesn't": 5529,
      "▁20": 5530,
      "▁finish": 5531,
      "▁olives,": 5532,
      "▁rising": 5533,
      "▁architecture": 5534,
      "▁vacant": 5535,
      "▁metropol": 5536,
      "▁turquoise": 5537,
      "lapidated": 5538,
      "cul": 5539,
      "mes": 5540,
      "ney": 5541,
      "▁woo": 5542,
      "▁gated": 5543,
      "▁stones": 5544,
      "used": 5545,
      "▁skills": 5546,
      "▁kiss": 5547,
      "▁kicks": 5548,
      "▁yach": 5549,
      "▁graph": 5550,
      "▁grabs": 5551,
      "▁gradu": 5552,
      "stal": 5553,
      "station": 5554,
      "▁airways": 5555,
      "▁backhand": 5556,
      "▁rather": 5557,
      "▁spices": 5558,
      "▁trek": 5559,
      "▁don't": 5560,
      "▁marker": 5561,
      "▁liner": 5562,
      "▁striking": 5563,
      "▁district": 5564,
      "▁milking": 5565,
      "▁well-": 5566,
      "berry": 5567,
      "▁frames": 5568,
      "▁accident": 5569,
      "▁propellers": 5570,
      "▁balanced": 5571,
      "▁historical": 5572,
      "ippers": 5573,
      "▁nursing": 5574,
      "▁accompan": 5575,
      "▁debris": 5576,
      "▁ambul": 5577,
      "▁gadget": 5578,
      "50": 5579,
      "dges": 5580,
      "▁sells": 5581,
      "▁wig": 5582,
      "▁strong": 5583,
      "othered": 5584,
      "▁plaque": 5585,
      "▁chalk": 5586,
      "▁smothered": 5587,
      "▁water's": 5588,
      "▁lives": 5589,
      "▁leas": 5590,
      "▁legged": 5591,
      "▁mirrored": 5592,
      "▁passed": 5593,
      "▁hello": 5594,
      "▁\"b": 5595,
      "▁submer": 5596,
      "▁carton": 5597,
      "▁utensil": 5598,
      "▁safari": 5599,
      "▁rises": 5600,
      "▁warming": 5601,
      "▁rotten": 5602,
      "▁attention": 5603,
      "▁kiwi": 5604,
      "▁homes": 5605,
      "▁sexy": 5606,
      "▁nestled": 5607,
      "▁cemetery": 5608,
      "-colored": 5609,
      "cut": 5610,
      "tes": 5611,
      "▁web": 5612,
      "▁then": 5613,
      "rofo": 5614,
      "omb": 5615,
      "unching": 5616,
      "▁shoo": 5617,
      "▁batters": 5618,
      "▁seed": 5619,
      "▁pours": 5620,
      "▁lip": 5621,
      "▁paste": 5622,
      "▁underwear": 5623,
      "▁giraffes,": 5624,
      "▁guiding": 5625,
      "▁decorating": 5626,
      "rons": 5627,
      "▁particip": 5628,
      "▁wireless": 5629,
      "▁crafts": 5630,
      "▁drain": 5631,
      "▁removed": 5632,
      "▁autumn": 5633,
      "▁depicts": 5634,
      "▁garnished": 5635,
      "▁skyscraper": 5636,
      "▁wonder": 5637,
      "▁alert": 5638,
      "mat": 5639,
      "wise": 5640,
      "rets": 5641,
      "▁mous": 5642,
      "▁dair": 5643,
      "▁lanes": 5644,
      "amed": 5645,
      "▁dilapidated": 5646,
      "▁kiteboarding": 5647,
      "▁fence,": 5648,
      "▁lovely": 5649,
      "▁meet": 5650,
      "▁bricked": 5651,
      "▁noses": 5652,
      "▁facility": 5653,
      "▁speeds": 5654,
      "lights": 5655,
      "▁blows": 5656,
      "▁lounges": 5657,
      "▁slaw": 5658,
      "▁splash": 5659,
      "▁flavored": 5660,
      "▁escal": 5661,
      "▁hummingbird": 5662,
      "▁raspberries": 5663,
      "▁metropolitan": 5664,
      "▁submerged": 5665,
      "▁dairy": 5666,
      "iator": 5667,
      "▁craw": 5668,
      "▁inc": 5669,
      "▁faded": 5670,
      "▁mill": 5671,
      "▁lat": 5672,
      "▁late": 5673,
      "aster": 5674,
      "urity": 5675,
      "using": 5676,
      "▁earth": 5677,
      "▁beers": 5678,
      "▁buy": 5679,
      "iece": 5680,
      "▁men,": 5681,
      "ppo": 5682,
      "rispy": 5683,
      "▁intric": 5684,
      "▁open,": 5685,
      "▁found": 5686,
      "gerator": 5687,
      "ified": 5688,
      "▁door,": 5689,
      "▁racer": 5690,
      "▁resid": 5691,
      "tock": 5692,
      "▁furniture,": 5693,
      "▁\"f": 5694,
      "▁\"h": 5695,
      "▁commun": 5696,
      "liners": 5697,
      "▁kittens": 5698,
      "▁retro": 5699,
      "▁your": 5700,
      "▁shadows": 5701,
      "▁oddly": 5702,
      "▁countertops": 5703,
      "▁security": 5704,
      "▁magazines": 5705,
      "▁digging": 5706,
      "▁fixture": 5707,
      "▁wok": 5708,
      "▁snuggling": 5709,
      "▁cuddling": 5710,
      "-shaped": 5711,
      "▁hundreds": 5712,
      "rofoam": 5713,
      "fruit": 5714,
      "sion": 5715,
      "▁est": 5716,
      "ready": 5717,
      "▁dol": 5718,
      "▁dance": 5719,
      "esting": 5720,
      "estern": 5721,
      "▁trailing": 5722,
      "▁crowds": 5723,
      "▁paperwork": 5724,
      "▁shell": 5725,
      "▁half-": 5726,
      "▁fork,": 5727,
      "▁styrofoam": 5728,
      "▁compete": 5729,
      "▁holders": 5730,
      "▁burnt": 5731,
      "▁glow": 5732,
      "▁wetsuits": 5733,
      "▁auto": 5734,
      "▁torn": 5735,
      "▁splashing": 5736,
      "▁skyscrapers": 5737,
      "▁mesh": 5738,
      "▁bumper": 5739,
      "▁techn": 5740,
      "▁belongings": 5741,
      "▁gazelle": 5742,
      "▁medicine": 5743,
      "-ha": 5744,
      "dated": 5745,
      "▁8": 5746,
      "erc": 5747,
      "▁mc": 5748,
      "▁milling": 5749,
      "▁mama": 5750,
      "▁gone": 5751,
      "ening": 5752,
      "▁stalk": 5753,
      "▁picks": 5754,
      "▁carving": 5755,
      "▁buying": 5756,
      "▁less": 5757,
      "▁girl's": 5758,
      "▁horse,": 5759,
      "▁trey": 5760,
      "▁suit,": 5761,
      "▁together,": 5762,
      "▁sunsh": 5763,
      "▁ridden": 5764,
      "▁drum": 5765,
      "▁clean,": 5766,
      "▁wrapping": 5767,
      "▁condu": 5768,
      "▁10": 5769,
      "▁vending": 5770,
      "▁gentlemen": 5771,
      "▁dais": 5772,
      "▁indicates": 5773,
      "▁dishwasher,": 5774,
      "▁arrows": 5775,
      "▁vendors": 5776,
      "alog": 5777,
      "▁pushes": 5778,
      "▁sprouts": 5779,
      "▁appetiz": 5780,
      "▁livestock": 5781,
      "food": 5782,
      "gin": 5783,
      "shes": 5784,
      "tage": 5785,
      "▁tar": 5786,
      "▁tilted": 5787,
      "▁sided": 5788,
      "reo": 5789,
      "▁cin": 5790,
      "▁inv": 5791,
      "▁goose": 5792,
      "▁ropes": 5793,
      "▁tabletop": 5794,
      "anted": 5795,
      "▁busted": 5796,
      "▁already": 5797,
      "▁patri": 5798,
      "▁panoram": 5799,
      "▁mouths": 5800,
      "▁wheeler": 5801,
      "▁except": 5802,
      "▁\"w": 5803,
      "▁monitors,": 5804,
      "▁donuts,": 5805,
      "bbles": 5806,
      "▁rug,": 5807,
      "ngth": 5808,
      "▁calcul": 5809,
      "▁lifted": 5810,
      "▁ascending": 5811,
      "▁pretending": 5812,
      "▁smoothie": 5813,
      "▁embracing": 5814,
      "▁grapefruit": 5815,
      "▁bronze": 5816,
      "▁camouflage": 5817,
      "▁crystal": 5818,
      "▁ambulance": 5819,
      "oid": 5820,
      "ith": 5821,
      "▁wines": 5822,
      "ister": 5823,
      "▁hid": 5824,
      "ilight": 5825,
      "ilies": 5826,
      "▁twilight": 5827,
      "▁chi": 5828,
      "▁cat's": 5829,
      "▁spire": 5830,
      "▁moss": 5831,
      "▁daylight": 5832,
      "arian": 5833,
      "urned": 5834,
      "▁knick": 5835,
      "▁caboose": 5836,
      "▁patrons": 5837,
      "▁shelter": 5838,
      "▁exotic": 5839,
      "▁\"p": 5840,
      "▁partial": 5841,
      "▁styl": 5842,
      "▁tired": 5843,
      "▁cracked": 5844,
      "▁jew": 5845,
      "▁blocked": 5846,
      "▁raises": 5847,
      "▁transporting": 5848,
      "▁label": 5849,
      "▁dotted": 5850,
      "▁cucumbers": 5851,
      "▁attending": 5852,
      "▁amidst": 5853,
      "▁knocked": 5854,
      "▁frizbee": 5855,
      "bread": 5856,
      "our": 5857,
      "▁sid": 5858,
      "▁wro": 5859,
      "▁push": 5860,
      "reg": 5861,
      "▁cd": 5862,
      "erst": 5863,
      "▁var": 5864,
      "▁docks": 5865,
      "▁chat": 5866,
      "▁grain": 5867,
      "▁grouping": 5868,
      "▁buss": 5869,
      "▁rooms": 5870,
      "zza": 5871,
      "▁backed": 5872,
      "▁overg": 5873,
      "▁bear,": 5874,
      "▁teal": 5875,
      "▁stored": 5876,
      "▁wiping": 5877,
      "▁fruits,": 5878,
      "▁platters": 5879,
      "▁boxing": 5880,
      "▁remains": 5881,
      "▁bottled": 5882,
      "▁purch": 5883,
      "▁hairy": 5884,
      "▁hovering": 5885,
      "▁incline": 5886,
      "▁stairway": 5887,
      "▁trashcan": 5888,
      "bank": 5889,
      "▁retail": 5890,
      "▁enth": 5891,
      "▁fish,": 5892,
      "▁job": 5893,
      "▁burrit": 5894,
      "▁should": 5895,
      "▁vanity,": 5896,
      "▁condition": 5897,
      "▁napping": 5898,
      "▁para-s": 5899,
      "▁bundled": 5900,
      "▁cherries": 5901,
      "▁washroom": 5902,
      "▁examining": 5903,
      "▁destination": 5904,
      "▁inspecting": 5905,
      "▁athletic": 5906,
      "▁handicap": 5907,
      "▁lettering": 5908,
      "▁hawk": 5909,
      "▁t.v.": 5910,
      "▁citrus": 5911,
      "▁describe": 5912,
      "▁squirrel": 5913,
      "▁tangerines": 5914,
      "namon": 5915,
      "▁equestrian": 5916,
      "▁escalator": 5917,
      "▁cinnamon": 5918,
      "brush": 5919,
      "come": 5920,
      "lings": 5921,
      "oro": 5922,
      "▁pc": 5923,
      "lets": 5924,
      "▁fis": 5925,
      "▁duff": 5926,
      "▁gown": 5927,
      "uses": 5928,
      "▁beca": 5929,
      "▁lam": 5930,
      "▁flips": 5931,
      "ions": 5932,
      "▁otherwise": 5933,
      "▁game,": 5934,
      "▁sandals": 5935,
      "▁littered": 5936,
      "▁diag": 5937,
      "▁triple": 5938,
      "▁sunflowers": 5939,
      "▁decorate": 5940,
      "▁televisions": 5941,
      "▁pita": 5942,
      "▁barb": 5943,
      "▁orch": 5944,
      "▁typ": 5945,
      "▁pillars": 5946,
      "▁flash": 5947,
      "▁washed": 5948,
      "▁egg,": 5949,
      "▁formally": 5950,
      "▁seafood": 5951,
      "▁juic": 5952,
      "▁archway": 5953,
      "▁processor": 5954,
      "▁captured": 5955,
      "▁pumpkin": 5956,
      "▁barely": 5957,
      "▁canada": 5958,
      "▁u.s": 5959,
      "▁pencil": 5960,
      "▁paneled": 5961,
      "▁admiring": 5962,
      "▁visitors": 5963,
      "▁contemporary": 5964,
      "▁necklace": 5965,
      "-haired": 5966,
      "▁because": 5967,
      "bled": 5968,
      "iently": 5969,
      "ties": 5970,
      "turned": 5971,
      "▁ais": 5972,
      "▁tip": 5973,
      "▁samp": 5974,
      "itude": 5975,
      "▁cane": 5976,
      "athered": 5977,
      "▁fu": 5978,
      "▁find": 5979,
      "▁dome": 5980,
      "▁lite": 5981,
      "lable": 5982,
      "▁frog": 5983,
      "▁basic": 5984,
      "▁sear": 5985,
      "▁kits": 5986,
      "▁beds,": 5987,
      "▁cact": 5988,
      "▁alp": 5989,
      "▁spi": 5990,
      "▁tall,": 5991,
      "▁ground,": 5992,
      "▁contest": 5993,
      "▁bagels": 5994,
      "▁walked": 5995,
      "pective": 5996,
      "▁deckered": 5997,
      "ize": 5998,
      "▁squares": 5999,
      "▁gates": 6000,
      "▁mascot": 6001,
      "▁rugs": 6002,
      "▁returns": 6003,
      "▁sectional": 6004,
      "▁robot": 6005,
      "▁pilot": 6006,
      "bucks": 6007,
      "▁cramped": 6008,
      "▁olympic": 6009,
      "▁appearing": 6010,
      "▁octop": 6011,
      "▁typical": 6012,
      "fu": 6013,
      "hich": 6014,
      "reme": 6015,
      "▁fine": 6016,
      "▁tourn": 6017,
      "▁tofu": 6018,
      "orial": 6019,
      "▁neut": 6020,
      "iche": 6021,
      "usi": 6022,
      "ebe": 6023,
      "▁laund": 6024,
      "▁snowsuit": 6025,
      "▁seeds": 6026,
      "▁waterfront": 6027,
      "▁height": 6028,
      "▁length": 6029,
      "▁cityscape": 6030,
      "▁zebras,": 6031,
      "▁rv": 6032,
      "▁spark": 6033,
      "▁enorm": 6034,
      "apers": 6035,
      "▁sound": 6036,
      "▁vase,": 6037,
      "▁patrol": 6038,
      "▁linens": 6039,
      "▁amuse": 6040,
      "▁hovers": 6041,
      "▁packages": 6042,
      "▁seem": 6043,
      "▁claw": 6044,
      "▁starbucks": 6045,
      "▁remod": 6046,
      "▁stoplights": 6047,
      "▁avai": 6048,
      "strip": 6049,
      "▁stormy": 6050,
      "▁recording": 6051,
      "▁creepy": 6052,
      "▁reclining": 6053,
      "▁grinds": 6054,
      "▁roasted": 6055,
      "▁croissant": 6056,
      "▁tournament": 6057,
      "▁enormous": 6058,
      "-side": 6059,
      "apped": 6060,
      "cient": 6061,
      "▁aff": 6062,
      "▁wel": 6063,
      "anse": 6064,
      "▁ann": 6065,
      "▁analog": 6066,
      "▁ancient": 6067,
      "▁fist": 6068,
      "ala": 6069,
      "▁stu": 6070,
      "▁whis": 6071,
      "▁cole": 6072,
      "undown": 6073,
      "▁ya": 6074,
      "▁jug": 6075,
      "ycling": 6076,
      "▁licks": 6077,
      "orth": 6078,
      "▁spir": 6079,
      "ago": 6080,
      "▁sandwhich": 6081,
      "▁biking": 6082,
      "ressed": 6083,
      "▁add": 6084,
      "▁prob": 6085,
      "▁refrid": 6086,
      "▁monster": 6087,
      "▁barric": 6088,
      "▁ways": 6089,
      "▁scenery": 6090,
      "▁exerc": 6091,
      "▁workstation": 6092,
      "▁computers,": 6093,
      "▁swims": 6094,
      "▁sandwiches,": 6095,
      "▁businessman": 6096,
      "▁function": 6097,
      "▁spring": 6098,
      "▁puppies": 6099,
      "▁bells": 6100,
      "▁shaved": 6101,
      "▁extending": 6102,
      "▁radiator": 6103,
      "▁taxiing": 6104,
      "▁pumpkins": 6105,
      "▁adjusts": 6106,
      "▁would": 6107,
      "▁recre": 6108,
      "▁examines": 6109,
      "▁record": 6110,
      "▁divided": 6111,
      "▁instrument": 6112,
      "▁mannequin": 6113,
      "▁instructions": 6114,
      "▁ticket": 6115,
      "▁shepher": 6116,
      "▁ceremony": 6117,
      "▁accompanied": 6118,
      "▁amusement": 6119,
      "▁available": 6120,
      "of": 6121,
      "▁9": 6122,
      "inery": 6123,
      "▁trot": 6124,
      "▁ses": 6125,
      "▁wrist": 6126,
      "▁inj": 6127,
      "▁fas": 6128,
      "▁husk": 6129,
      "▁dvd": 6130,
      "▁native": 6131,
      "▁named": 6132,
      "▁beached": 6133,
      "▁vane": 6134,
      "▁waling": 6135,
      "ugly": 6136,
      "▁heater": 6137,
      "▁board,": 6138,
      "▁scram": 6139,
      "▁unp": 6140,
      "▁cup,": 6141,
      "▁linen": 6142,
      "▁lapse": 6143,
      "▁stylish": 6144,
      "▁tier": 6145,
      "▁clad": 6146,
      "▁reflects": 6147,
      "▁reflective": 6148,
      "▁hooded": 6149,
      "▁calves": 6150,
      "▁tanker": 6151,
      "▁gener": 6152,
      "▁expanse": 6153,
      "▁trolly": 6154,
      "▁removing": 6155,
      "▁advertisements": 6156,
      "▁owners": 6157,
      "▁steak,": 6158,
      "▁fedora": 6159,
      "▁presented": 6160,
      "▁goalie": 6161,
      "▁troph": 6162,
      "▁handicapped": 6163,
      "▁renovated": 6164,
      "▁galloping": 6165,
      "▁\"stop": 6166,
      "▁peacock": 6167,
      "ppost": 6168,
      "▁sunshine": 6169,
      "▁hidden": 6170,
      "▁enthusi": 6171,
      "▁lamppost": 6172,
      "▁aisle": 6173,
      "hop": 6174,
      "hold": 6175,
      "lor": 6176,
      "lane": 6177,
      "piece": 6178,
      "tower": 6179,
      "walks": 6180,
      "itting": 6181,
      "▁came": 6182,
      "lent": 6183,
      "▁ther": 6184,
      "▁ofa": 6185,
      "rots": 6186,
      "▁dalm": 6187,
      "▁gn": 6188,
      "enting": 6189,
      "▁stay": 6190,
      "raut": 6191,
      "▁atv": 6192,
      "▁raquet": 6193,
      "▁airstrip": 6194,
      "▁surfboarding": 6195,
      "▁zuc": 6196,
      "▁motorcycle,": 6197,
      "▁windm": 6198,
      "▁fora": 6199,
      "▁truck,": 6200,
      "▁skis,": 6201,
      "▁hazy": 6202,
      "▁long,": 6203,
      "▁salon": 6204,
      "▁wildebe": 6205,
      "▁packaged": 6206,
      "▁machinery": 6207,
      "▁terri": 6208,
      "▁burner": 6209,
      "▁peeks": 6210,
      "▁hallow": 6211,
      "▁handleb": 6212,
      "▁numeral": 6213,
      "▁beanie": 6214,
      "▁driver's": 6215,
      "▁bandana": 6216,
      "▁reception": 6217,
      "▁silhouet": 6218,
      "▁ornament": 6219,
      "▁athletes": 6220,
      "▁futon": 6221,
      "▁victor": 6222,
      "▁employe": 6223,
      "▁bouncing": 6224,
      "▁bulldog": 6225,
      "▁conductor": 6226,
      "▁u.s.": 6227,
      "▁sesame": 6228,
      "▁zucch": 6229,
      "-lined": 6230,
      "ough": 6231,
      "ther": 6232,
      "▁bug": 6233,
      "▁might": 6234,
      "▁hug": 6235,
      "▁hooks": 6236,
      "▁dang": 6237,
      "▁ga": 6238,
      "▁gor": 6239,
      "▁thread": 6240,
      "▁peach": 6241,
      "▁peak": 6242,
      "▁cocon": 6243,
      "▁vent": 6244,
      "▁vine": 6245,
      "▁personnel": 6246,
      "antic": 6247,
      "▁downward": 6248,
      "▁snap": 6249,
      "seat": 6250,
      "▁park,": 6251,
      "inder": 6252,
      "▁sidecar": 6253,
      "ctors": 6254,
      "▁poor": 6255,
      "▁hedge": 6256,
      "eech": 6257,
      "▁handed": 6258,
      "▁spars": 6259,
      "▁speech": 6260,
      "▁film": 6261,
      "▁views": 6262,
      "▁guide": 6263,
      "icking": 6264,
      "▁marching": 6265,
      "▁raining": 6266,
      "▁jacket,": 6267,
      "▁salmon": 6268,
      "▁candies": 6269,
      "▁pen,": 6270,
      "▁vanilla": 6271,
      "▁fridge,": 6272,
      "▁wedge": 6273,
      "▁casual": 6274,
      "▁dragging": 6275,
      "▁climbs": 6276,
      "▁charging": 6277,
      "▁complex": 6278,
      "▁dots": 6279,
      "▁conversing": 6280,
      "▁burners": 6281,
      "▁cucumber": 6282,
      "▁ornaments": 6283,
      "▁import": 6284,
      "▁architect": 6285,
      "▁ponies": 6286,
      "▁chips,": 6287,
      "▁calculator": 6288,
      "▁overgrown": 6289,
      "▁alpine": 6290,
      "▁neutral": 6291,
      "▁laundry": 6292,
      "▁shepherd": 6293,
      "▁halloween": 6294,
      "▁employees": 6295,
      "▁pud": 6296,
      "▁mp": 6297,
      "▁mur": 6298,
      "▁mice": 6299,
      "▁gang": 6300,
      "▁think": 6301,
      "▁roy": 6302,
      "▁yummy": 6303,
      "▁parrots": 6304,
      "▁car's": 6305,
      "▁gift": 6306,
      "▁lips": 6307,
      "rise": 6308,
      "▁slanted": 6309,
      "▁scra": 6310,
      "▁litter": 6311,
      "▁foal": 6312,
      "▁mosa": 6313,
      "▁mozza": 6314,
      "▁teac": 6315,
      "▁colum": 6316,
      "▁sky,": 6317,
      "▁flowery": 6318,
      "▁chews": 6319,
      "▁standard": 6320,
      "▁station,": 6321,
      "▁stereo": 6322,
      "estic": 6323,
      "▁amtra": 6324,
      "▁haircut": 6325,
      "▁salt": 6326,
      "▁hockey": 6327,
      "▁subst": 6328,
      "▁baseman": 6329,
      "ixed": 6330,
      "quee": 6331,
      "coat": 6332,
      "▁approach": 6333,
      "▁propell": 6334,
      "▁jean": 6335,
      "▁practices": 6336,
      "▁positions": 6337,
      "▁noodle": 6338,
      "▁finishing": 6339,
      "▁focused": 6340,
      "▁dense": 6341,
      "▁spinning": 6342,
      "▁readies": 6343,
      "▁sleigh": 6344,
      "-sized": 6345,
      "▁captivity": 6346,
      "▁moment": 6347,
      "▁languages": 6348,
      "▁destro": 6349,
      "▁fleet": 6350,
      "▁congreg": 6351,
      "▁markers": 6352,
      "▁residence": 6353,
      "▁octopus": 6354,
      "▁probably": 6355,
      "▁refridgerator": 6356,
      "▁zucchini": 6357,
      "▁sparsely": 6358,
      "▁mozzarella": 6359,
      "cycle": 6360,
      "fting": 6361,
      "hift": 6362,
      "ola": 6363,
      "pit": 6364,
      "▁urn": 6365,
      "▁berry": 6366,
      "▁huddle": 6367,
      "▁ginger": 6368,
      "▁nature": 6369,
      "▁standing,": 6370,
      "▁vess": 6371,
      "▁plun": 6372,
      "▁plum": 6373,
      "▁shine": 6374,
      "▁bat,": 6375,
      "▁weathered": 6376,
      "▁interst": 6377,
      "▁unders": 6378,
      "▁florets": 6379,
      "▁surfboard,": 6380,
      "▁bunt": 6381,
      "ques": 6382,
      "▁courts": 6383,
      "▁bib": 6384,
      "▁vegetarian": 6385,
      "▁wired": 6386,
      "▁proper": 6387,
      "▁barber": 6388,
      "▁amaz": 6389,
      "▁exper": 6390,
      "▁engaging": 6391,
      "▁concert": 6392,
      "▁waste": 6393,
      "▁teamm": 6394,
      "structed": 6395,
      "▁hammer": 6396,
      "▁wheelie": 6397,
      "▁drapes": 6398,
      "▁mustard,": 6399,
      "▁delivering": 6400,
      "▁parasail": 6401,
      "stead": 6402,
      "▁limes": 6403,
      "▁barriers": 6404,
      "▁carefully": 6405,
      "▁compartments": 6406,
      "▁dropping": 6407,
      "▁idle": 6408,
      "▁oxen": 6409,
      "▁flamingos": 6410,
      "▁political": 6411,
      "▁gadgets": 6412,
      "▁mcd": 6413,
      "▁husky": 6414,
      "▁important": 6415,
      "▁mp3": 6416,
      "▁mosaic": 6417,
      "▁interstate": 6418,
      "00": 6419,
      "back": 6420,
      "rs": 6421,
      "▁oat": 6422,
      "erior": 6423,
      "▁fet": 6424,
      "▁gull": 6425,
      "ends": 6426,
      "eline": 6427,
      "▁reins": 6428,
      "▁krispy": 6429,
      "▁grove": 6430,
      "▁upwards": 6431,
      "▁pokes": 6432,
      "▁other,": 6433,
      "▁skateboard,": 6434,
      "▁ball,": 6435,
      "▁he's": 6436,
      "▁clocktower": 6437,
      "▁cave": 6438,
      "entr": 6439,
      "aneous": 6440,
      "▁umbrella's": 6441,
      "▁laptops,": 6442,
      "▁teap": 6443,
      "▁banquet": 6444,
      "▁bowl,": 6445,
      "▁fences": 6446,
      "▁stuffing": 6447,
      "▁loft": 6448,
      "▁wine,": 6449,
      "▁herded": 6450,
      "▁server": 6451,
      "▁patiently": 6452,
      "▁household": 6453,
      "gram": 6454,
      "rawn": 6455,
      "▁settings": 6456,
      "▁beautifully": 6457,
      "▁garb": 6458,
      "▁packing": 6459,
      "▁bloss": 6460,
      "▁master": 6461,
      "▁crab": 6462,
      "▁makeshift": 6463,
      "▁turtle": 6464,
      "▁grooming": 6465,
      "▁hamburgers": 6466,
      "▁product": 6467,
      "▁recliner": 6468,
      "▁solar": 6469,
      "▁pressing": 6470,
      "-style": 6471,
      "▁ranch": 6472,
      "▁hunched": 6473,
      "-looking": 6474,
      "▁memorial": 6475,
      "▁currently": 6476,
      "▁markings": 6477,
      "▁daisies": 6478,
      "▁burrito": 6479,
      "▁amtrak": 6480,
      "▁mcdonal": 6481,
      "-way": 6482,
      "cent": 6483,
      "fight": 6484,
      "▁ugly": 6485,
      "▁suck": 6486,
      "▁western": 6487,
      "eries": 6488,
      "▁instead": 6489,
      "▁danger": 6490,
      "omy": 6491,
      "rail": 6492,
      "▁nasty": 6493,
      "▁ver": 6494,
      "▁vans": 6495,
      "▁cat,": 6496,
      "▁snowing": 6497,
      "▁train,": 6498,
      "▁buried": 6499,
      "▁poured": 6500,
      "▁live": 6501,
      "epad": 6502,
      "▁elephants,": 6503,
      "▁waist": 6504,
      "▁slippers": 6505,
      "▁handled": 6506,
      "▁veg": 6507,
      "▁filthy": 6508,
      "▁showroom": 6509,
      "▁fencing": 6510,
      "▁appa": 6511,
      "▁goble": 6512,
      "▁floors,": 6513,
      "▁horses,": 6514,
      "▁cups,": 6515,
      "▁camel": 6516,
      "▁paper,": 6517,
      "▁forehead": 6518,
      "▁barge": 6519,
      "▁strips": 6520,
      "▁carried": 6521,
      "▁concentr": 6522,
      "bbling": 6523,
      "▁trails": 6524,
      "▁struct": 6525,
      "▁pepperoni,": 6526,
      "▁median": 6527,
      "▁warns": 6528,
      "▁sections": 6529,
      "▁strawberries,": 6530,
      "▁corn,": 6531,
      "▁magnet": 6532,
      "▁populated": 6533,
      "▁levels": 6534,
      "▁descending": 6535,
      "▁activ": 6536,
      "▁spaces": 6537,
      "▁ferris": 6538,
      "market": 6539,
      "▁goof": 6540,
      "▁consumption": 6541,
      "▁crocheted": 6542,
      "▁crawling": 6543,
      "▁patriotic": 6544,
      "▁cactus": 6545,
      "▁affixed": 6546,
      "fl": 6547,
      "je": 6548,
      "oy": 6549,
      "tal": 6550,
      "vas": 6551,
      "▁theater": 6552,
      "▁twent": 6553,
      "ica": 6554,
      "▁peaking": 6555,
      "▁roam": 6556,
      "▁vir": 6557,
      "▁lav": 6558,
      "▁chic": 6559,
      "▁blazer": 6560,
      "▁sidewalks": 6561,
      "▁bud": 6562,
      "▁bubble": 6563,
      "▁hash": 6564,
      "▁player,": 6565,
      "▁asia": 6566,
      "▁glass,": 6567,
      "▁light,": 6568,
      "▁hand,": 6569,
      "▁tails": 6570,
      "▁underground": 6571,
      "▁stoves": 6572,
      "dock": 6573,
      "▁headlights": 6574,
      "▁sunlit": 6575,
      "▁plantains": 6576,
      "▁sleepy": 6577,
      "▁attach": 6578,
      "▁\"d": 6579,
      "▁england": 6580,
      "▁marketplace": 6581,
      "▁flowering": 6582,
      "▁spewing": 6583,
      "▁rooft": 6584,
      "▁deliver": 6585,
      "▁12": 6586,
      "▁needle": 6587,
      "▁peacefully": 6588,
      "▁snuggled": 6589,
      "▁extreme": 6590,
      "▁stockings": 6591,
      "▁vertical": 6592,
      "▁wooly": 6593,
      "▁trekking": 6594,
      "▁foraging": 6595,
      "▁royal": 6596,
      "ake": 6597,
      "shed": 6598,
      "tail": 6599,
      "▁(": 6600,
      "▁et": 6601,
      "▁aboard": 6602,
      "▁pood": 6603,
      "▁fell": 6604,
      "▁dre": 6605,
      "▁diced": 6606,
      "▁goth": 6607,
      "▁mango": 6608,
      "alls": 6609,
      "▁peps": 6610,
      "ables": 6611,
      "▁kreme": 6612,
      "▁ripen": 6613,
      "▁horse-d": 6614,
      "▁teens": 6615,
      "agie": 6616,
      "▁diaper": 6617,
      "▁enough": 6618,
      "umpled": 6619,
      "▁drizz": 6620,
      "▁chee": 6621,
      "▁day,": 6622,
      "arium": 6623,
      "▁added": 6624,
      "▁halfway": 6625,
      "▁\"no": 6626,
      "▁hoop": 6627,
      "▁hoagie": 6628,
      "▁obsc": 6629,
      "▁helmeted": 6630,
      "▁spec": 6631,
      "▁landscap": 6632,
      "▁eyed": 6633,
      "▁lefto": 6634,
      "▁blooming": 6635,
      "▁depar": 6636,
      "▁caps": 6637,
      "▁foreground,": 6638,
      "▁grilling": 6639,
      "▁charger": 6640,
      "▁tossed": 6641,
      "▁depicted": 6642,
      "▁customer": 6643,
      "▁cushions": 6644,
      "▁unused": 6645,
      "▁awaits": 6646,
      "▁trimmed": 6647,
      "▁minim": 6648,
      "▁ornamental": 6649,
      "▁blueberry": 6650,
      "▁channel": 6651,
      "▁supermarket": 6652,
      "▁contraption": 6653,
      "▁pencils": 6654,
      "▁rhin": 6655,
      "▁scrub": 6656,
      "▁yacht": 6657,
      "▁stylized": 6658,
      "▁substance": 6659,
      "▁teapot": 6660,
      "▁pepsi": 6661,
      "not": 6662,
      "▁aer": 6663,
      "inary": 6664,
      "▁cris": 6665,
      "▁crus": 6666,
      "▁fran": 6667,
      "▁ding": 6668,
      "▁drop": 6669,
      "asts": 6670,
      "opes": 6671,
      "▁pea": 6672,
      "▁coaster": 6673,
      "ston": 6674,
      "▁elev": 6675,
      "▁boarded": 6676,
      "▁bridle": 6677,
      "▁enc": 6678,
      "▁clip": 6679,
      "▁proce": 6680,
      "▁proud": 6681,
      "▁contact": 6682,
      "▁controlled": 6683,
      "▁marks": 6684,
      "▁speaks": 6685,
      "▁lands": 6686,
      "▁appliances,": 6687,
      "▁hammo": 6688,
      "▁croo": 6689,
      "▁intern": 6690,
      "▁exterior": 6691,
      "▁cloths": 6692,
      "▁trailers": 6693,
      "▁replic": 6694,
      "▁beef,": 6695,
      "▁groceries": 6696,
      "▁combing": 6697,
      "▁fedex": 6698,
      "▁captive": 6699,
      "▁woven": 6700,
      "▁cauliflower,": 6701,
      "▁farmer's": 6702,
      "▁biscuits": 6703,
      "▁rhino": 6704,
      "▁pelican": 6705,
      "▁broadway": 6706,
      "▁instructor": 6707,
      "▁intricate": 6708,
      "▁estab": 6709,
      "▁jewel": 6710,
      "▁architectural": 6711,
      "▁structures": 6712,
      "▁horse-drawn": 6713,
      "cases": 6714,
      "em": 6715,
      "ham": 6716,
      "▁ast": 6717,
      "▁sell": 6718,
      "opard": 6719,
      "icans": 6720,
      "▁react": 6721,
      "ebur": 6722,
      "▁chill": 6723,
      "▁grave": 6724,
      "▁motorboat": 6725,
      "▁overturned": 6726,
      "▁rd": 6727,
      "▁rundown": 6728,
      "▁lightly": 6729,
      "▁firefight": 6730,
      "ape": 6731,
      "▁preform": 6732,
      "▁headband": 6733,
      "▁safe": 6734,
      "▁pink,": 6735,
      "▁races": 6736,
      "▁empty,": 6737,
      "▁highchair": 6738,
      "tenance": 6739,
      "▁canvas": 6740,
      "ians": 6741,
      "▁shells": 6742,
      "▁novel": 6743,
      "▁buses,": 6744,
      "▁pauses": 6745,
      "▁layed": 6746,
      "▁squats": 6747,
      "▁famous": 6748,
      "▁styles": 6749,
      "▁quart": 6750,
      "ensive": 6751,
      "▁lunging": 6752,
      "▁umpire,": 6753,
      "▁accent": 6754,
      "▁housing": 6755,
      "▁sorts": 6756,
      "▁expired": 6757,
      "▁studying": 6758,
      "▁eyeglasses": 6759,
      "▁laughs": 6760,
      "▁lifegu": 6761,
      "▁cranes": 6762,
      "▁brass": 6763,
      "▁maintain": 6764,
      "▁maintenance": 6765,
      "▁fairly": 6766,
      "▁tongs": 6767,
      "▁employ": 6768,
      "▁retriever": 6769,
      "▁aquarium": 6770,
      "▁half-eaten": 6771,
      "▁wrought": 6772,
      "▁columns": 6773,
      "▁destroyed": 6774,
      "▁underside": 6775,
      "▁hammock": 6776,
      "gi": 6777,
      "kers": 6778,
      "mers": 6779,
      "nes": 6780,
      "occup": 6781,
      "wor": 6782,
      "▁sigh": 6783,
      "▁cly": 6784,
      "▁mad": 6785,
      "▁dude": 6786,
      "▁toned": 6787,
      "▁stages": 6788,
      "ckled": 6789,
      "▁root": 6790,
      "▁yield": 6791,
      "▁rig": 6792,
      "▁shack": 6793,
      "amel": 6794,
      "▁signing": 6795,
      "▁herds": 6796,
      "▁leopard": 6797,
      "▁toilette": 6798,
      "▁conv": 6799,
      "▁rat": 6800,
      "▁rally": 6801,
      "▁swift": 6802,
      "iforn": 6803,
      "▁background,": 6804,
      "▁broth": 6805,
      "▁protru": 6806,
      "▁loves": 6807,
      "▁knacks": 6808,
      "▁diners": 6809,
      "▁dark,": 6810,
      "▁docking": 6811,
      "▁clothed": 6812,
      "▁packs": 6813,
      "▁seeing": 6814,
      "▁paddock": 6815,
      "▁checker": 6816,
      "▁musc": 6817,
      "▁claus": 6818,
      "▁models": 6819,
      "▁glider": 6820,
      "▁californ": 6821,
      "▁lemons,": 6822,
      "▁surroundings": 6823,
      "▁macbook": 6824,
      "▁taste": 6825,
      "▁plank": 6826,
      "▁took": 6827,
      "▁shrimp,": 6828,
      "▁wander": 6829,
      "▁sleeve": 6830,
      "▁central": 6831,
      "▁curiously": 6832,
      "▁assembly": 6833,
      "huahua": 6834,
      "▁nuzzling": 6835,
      "▁leashes": 6836,
      "▁shooting": 6837,
      "▁chihuahua": 6838,
      "▁recreational": 6839,
      "▁activities": 6840,
      "▁poodle": 6841,
      "▁lifeguard": 6842,
      "occupied": 6843,
      "▁california": 6844,
      "-m": 6845,
      "▁-": 6846,
      "▁affe": 6847,
      "▁aust": 6848,
      "▁til": 6849,
      "▁sams": 6850,
      "▁bone": 6851,
      "▁cant": 6852,
      "lect": 6853,
      "erk": 6854,
      "isted": 6855,
      "▁hides": 6856,
      "▁dus": 6857,
      "▁lant": 6858,
      "▁staff": 6859,
      "omas": 6860,
      "▁vines": 6861,
      "▁changing": 6862,
      "▁blade": 6863,
      "▁parks": 6864,
      "▁motes": 6865,
      "▁backseat": 6866,
      "▁wavy": 6867,
      "▁rink": 6868,
      "▁dem": 6869,
      "▁fireman": 6870,
      "▁swiss": 6871,
      "▁viewer": 6872,
      "▁women,": 6873,
      "▁baby's": 6874,
      "aced": 6875,
      "▁contin": 6876,
      "▁taller": 6877,
      "▁rowboat": 6878,
      "▁greet": 6879,
      "▁wheat": 6880,
      "▁breads": 6881,
      "▁salsa": 6882,
      "▁\"c": 6883,
      "▁hour": 6884,
      "▁worked": 6885,
      "▁lamps,": 6886,
      "▁quaint": 6887,
      "▁checked": 6888,
      "▁entire": 6889,
      "▁misc": 6890,
      "meal": 6891,
      "▁juice,": 6892,
      "▁tosses": 6893,
      "▁certain": 6894,
      "▁cheesebur": 6895,
      "▁receive": 6896,
      "▁pineapples": 6897,
      "▁flavors": 6898,
      "▁idly": 6899,
      "▁cables": 6900,
      "▁brushed": 6901,
      "▁pantry": 6902,
      "▁rapids": 6903,
      "▁wrestling": 6904,
      "▁mechanical": 6905,
      "▁virgin": 6906,
      "▁gothic": 6907,
      "▁replica": 6908,
      "▁establish": 6909,
      "▁jewelry": 6910,
      "flower": 6911,
      "keb": 6912,
      "kia": 6913,
      "tel": 6914,
      "▁sund": 6915,
      "▁bring": 6916,
      "▁wrong": 6917,
      "▁ping": 6918,
      "atian": 6919,
      "▁tot": 6920,
      "▁nook": 6921,
      "▁thomas": 6922,
      "▁boston": 6923,
      "▁perspective": 6924,
      "▁outdated": 6925,
      "▁blades": 6926,
      "▁bases": 6927,
      "▁side-": 6928,
      "▁ford": 6929,
      "▁zomb": 6930,
      "▁frisby": 6931,
      "▁scre": 6932,
      "▁taco": 6933,
      "orted": 6934,
      "▁colla": 6935,
      "▁diffic": 6936,
      "▁kiteboard": 6937,
      "▁women's": 6938,
      "▁animated": 6939,
      "▁arts": 6940,
      "▁proje": 6941,
      "▁steal": 6942,
      "▁paneling": 6943,
      "▁attack": 6944,
      "▁beauty": 6945,
      "▁butcher": 6946,
      "born": 6947,
      "▁gloomy": 6948,
      "▁mason": 6949,
      "▁burgers": 6950,
      "▁casting": 6951,
      "▁glaze": 6952,
      "▁dresser,": 6953,
      "▁items,": 6954,
      "▁observe": 6955,
      "▁region": 6956,
      "ratul": 6957,
      "▁fryer": 6958,
      "▁tattoos": 6959,
      "▁hearts": 6960,
      "▁roasting": 6961,
      "▁palace": 6962,
      "▁spreading": 6963,
      "▁spreads": 6964,
      "▁boulders": 6965,
      "orous": 6966,
      "▁trotting": 6967,
      "▁dalmatian": 6968,
      "▁terrier": 6969,
      "▁murky": 6970,
      "▁twenty": 6971,
      "▁minimal": 6972,
      "▁employee": 6973,
      "▁affection": 6974,
      "▁difficult": 6975,
      "ah": 6976,
      "dry": 6977,
      "dale": 6978,
      "lift": 6979,
      "nas": 6980,
      "▁tit": 6981,
      "▁tell": 6982,
      "▁o'": 6983,
      "▁wid": 6984,
      "▁stalks": 6985,
      "▁twel": 6986,
      "▁coated": 6987,
      "▁beam": 6988,
      "▁boiled": 6989,
      "▁shark": 6990,
      "▁caramel": 6991,
      "▁bust": 6992,
      "▁buds": 6993,
      "▁lizard": 6994,
      "▁zo": 6995,
      "▁elephant,": 6996,
      "▁couples": 6997,
      "▁wakeb": 6998,
      "▁conne": 6999,
      "▁throughout": 7000,
      "▁brownies": 7001,
      "▁column": 7002,
      "aps": 7003,
      "▁prey": 7004,
      "uffed": 7005,
      "▁head,": 7006,
      "▁triangle": 7007,
      "▁tracks,": 7008,
      "uggling": 7009,
      "▁unb": 7010,
      "▁unoccupied": 7011,
      "▁bag,": 7012,
      "▁nokia": 7013,
      "shop": 7014,
      "▁\"the": 7015,
      "▁paying": 7016,
      "▁layers": 7017,
      "▁pretz": 7018,
      "▁cabinet,": 7019,
      "▁wedges": 7020,
      "▁lunges": 7021,
      "▁gathers": 7022,
      "▁laden": 7023,
      "▁modified": 7024,
      "▁strap": 7025,
      "▁misses": 7026,
      "▁mitts": 7027,
      "▁streamers": 7028,
      "▁semi-": 7029,
      "▁angel": 7030,
      "▁bake": 7031,
      "▁recently": 7032,
      "▁bordered": 7033,
      "▁divider": 7034,
      "▁sauerk": 7035,
      "▁merch": 7036,
      "▁resemb": 7037,
      "▁graphic": 7038,
      "▁community": 7039,
      "▁technol": 7040,
      "▁appetizers": 7041,
      "▁panoramic": 7042,
      "▁injured": 7043,
      "▁scrambled": 7044,
      "▁handlebars": 7045,
      "▁plunger": 7046,
      "▁oatmeal": 7047,
      "▁elevator": 7048,
      "▁austral": 7049,
      "▁samsung": 7050,
      "▁cheeseburger": 7051,
      ":2": 7052,
      "nie": 7053,
      "well": 7054,
      "▁ir": 7055,
      "▁spen": 7056,
      "▁squee": 7057,
      "▁bitten": 7058,
      "itti": 7059,
      "▁pra": 7060,
      "▁cel": 7061,
      "▁inner": 7062,
      "ison": 7063,
      "▁mu": 7064,
      "▁tone": 7065,
      "las": 7066,
      "▁norm": 7067,
      "▁peer": 7068,
      "▁peels": 7069,
      "▁fift": 7070,
      "▁launch": 7071,
      "▁batch": 7072,
      "ami": 7073,
      "▁tennis,": 7074,
      "▁seal": 7075,
      "▁baseball,": 7076,
      "▁playfully": 7077,
      "▁combo": 7078,
      "▁motoc": 7079,
      "▁constructed": 7080,
      "▁boating": 7081,
      "▁giraffe,": 7082,
      "ifying": 7083,
      "▁preser": 7084,
      "▁goers": 7085,
      "▁hyd": 7086,
      "▁standup": 7087,
      "▁sunrise": 7088,
      "▁promin": 7089,
      "▁knot": 7090,
      "▁whose": 7091,
      "▁memo": 7092,
      "▁pancake": 7093,
      "▁rescue": 7094,
      "▁blank": 7095,
      "▁hours": 7096,
      "inton": 7097,
      "▁families": 7098,
      "▁newborn": 7099,
      "▁india": 7100,
      "▁curbside": 7101,
      "▁flatbread": 7102,
      "▁swimsuit": 7103,
      "▁rounded": 7104,
      "▁rugby": 7105,
      "▁crazy": 7106,
      "▁groomed": 7107,
      "▁ketchup,": 7108,
      "▁patterns": 7109,
      "▁brace": 7110,
      "▁bundt": 7111,
      "▁sweets": 7112,
      "▁learn": 7113,
      "▁melon": 7114,
      "▁arrive": 7115,
      "▁kayaks": 7116,
      "▁streetlights": 7117,
      "▁foamy": 7118,
      "▁spanish": 7119,
      "▁demonstration": 7120,
      "▁oversized": 7121,
      "▁maneuver": 7122,
      "known": 7123,
      "▁southw": 7124,
      "▁luxury": 7125,
      "▁investigating": 7126,
      "▁flanked": 7127,
      "▁victorian": 7128,
      "▁dangling": 7129,
      "▁goofy": 7130,
      "▁chicago": 7131,
      "▁twelve": 7132,
      "cis": 7133,
      "mble": 7134,
      "nut": 7135,
      "ys": 7136,
      "yer": 7137,
      "▁x": 7138,
      "▁age": 7139,
      "▁able": 7140,
      "▁award": 7141,
      "▁arab": 7142,
      "inating": 7143,
      "▁sure": 7144,
      "▁inn": 7145,
      "▁gig": 7146,
      "▁lic": 7147,
      "▁last": 7148,
      "icles": 7149,
      "icular": 7150,
      "▁ere": 7151,
      "▁holly": 7152,
      "▁laven": 7153,
      "stick": 7154,
      "stract": 7155,
      "▁blown": 7156,
      "▁gifts": 7157,
      "▁backside": 7158,
      "▁shears": 7159,
      "▁motorcycles,": 7160,
      "▁frisbee,": 7161,
      "▁tree-lined": 7162,
      "▁hydrant,": 7163,
      "▁tricycle": 7164,
      "▁sunb": 7165,
      "▁unknown": 7166,
      "▁fours": 7167,
      "▁boxed": 7168,
      "▁lock": 7169,
      "▁pitches": 7170,
      "▁panting": 7171,
      "clock": 7172,
      "▁batter's": 7173,
      "▁pillows,": 7174,
      "▁pitcher's": 7175,
      "▁centerpiece": 7176,
      "ensely": 7177,
      "▁sunglasses,": 7178,
      "▁11": 7179,
      "▁abund": 7180,
      "▁abstract": 7181,
      "▁shrub": 7182,
      "▁sweep": 7183,
      "▁recipe": 7184,
      "▁repairs": 7185,
      "▁drops": 7186,
      "▁fixed": 7187,
      "▁goog": 7188,
      "▁mailbox": 7189,
      "▁dunkin": 7190,
      "▁mannequins": 7191,
      "▁pears,": 7192,
      "▁relig": 7193,
      "▁scoop": 7194,
      "▁tusked": 7195,
      "kiing": 7196,
      "▁hurdle": 7197,
      "▁graduation": 7198,
      "▁spiral": 7199,
      "▁therm": 7200,
      "▁coconut": 7201,
      "▁propellor": 7202,
      "▁miscell": 7203,
      "▁establishment": 7204,
      "▁sauerkraut": 7205,
      "-h": 7206,
      "▁tack": 7207,
      "▁tshirt": 7208,
      "▁tightly": 7209,
      "▁oar": 7210,
      "▁bm": 7211,
      "▁crying": 7212,
      "roning": 7213,
      "▁dan": 7214,
      "▁national": 7215,
      "olding": 7216,
      "arded": 7217,
      "▁coal": 7218,
      "▁coaches": 7219,
      "▁bound": 7220,
      "▁pars": 7221,
      "atee": 7222,
      "▁flipped": 7223,
      "▁outhouse": 7224,
      "▁snowman": 7225,
      "▁seper": 7226,
      "▁airliners": 7227,
      "▁playful": 7228,
      "▁forrest": 7229,
      "▁least": 7230,
      "▁coupe": 7231,
      "▁intense": 7232,
      "▁photoshop": 7233,
      "boats": 7234,
      "▁sheep,": 7235,
      "▁tower,": 7236,
      "▁hitched": 7237,
      "▁unt": 7238,
      "venile": 7239,
      "▁program": 7240,
      "tended": 7241,
      "graph": 7242,
      "▁looked": 7243,
      "▁salads": 7244,
      "▁performance": 7245,
      "by-side": 7246,
      "▁edges": 7247,
      "▁partition": 7248,
      "▁submar": 7249,
      "▁ironing": 7250,
      "▁pointy": 7251,
      "▁quiche": 7252,
      "scale": 7253,
      "▁costumed": 7254,
      "▁juvenile": 7255,
      "▁veggies,": 7256,
      "▁leafless": 7257,
      "▁bushy": 7258,
      "▁presenting": 7259,
      "▁rearview": 7260,
      "▁starts": 7261,
      "▁butter,": 7262,
      "▁succ": 7263,
      "-filled": 7264,
      "▁newspapers": 7265,
      "▁dumpster": 7266,
      "▁alleyway": 7267,
      "▁stroll": 7268,
      "▁operated": 7269,
      "▁pleas": 7270,
      "▁anticip": 7271,
      "post": 7272,
      "ebox": 7273,
      "▁seasoned": 7274,
      "▁messing": 7275,
      "▁renovation": 7276,
      "▁revealing": 7277,
      "▁discussing": 7278,
      "▁skelet": 7279,
      "▁converted": 7280,
      "▁releasing": 7281,
      "▁navig": 7282,
      "▁seasoning": 7283,
      "▁participating": 7284,
      "▁invol": 7285,
      "▁varying": 7286,
      "▁juicer": 7287,
      "▁enthusiast": 7288,
      "▁rooftop": 7289,
      "▁side-by-side": 7290,
      "▁projection": 7291,
      "▁lavender": 7292,
      "▁submarine": 7293,
      "ae": 7294,
      "aved": 7295,
      "eing": 7296,
      "pace": 7297,
      "wed": 7298,
      "▁pong": 7299,
      "▁fellow": 7300,
      "▁dated": 7301,
      "unks": 7302,
      "▁sitt": 7303,
      "ilia": 7304,
      "▁whine": 7305,
      "▁whip": 7306,
      "iders": 7307,
      "▁peoples": 7308,
      "▁vel": 7309,
      "▁plac": 7310,
      "▁frowning": 7311,
      "▁battle": 7312,
      "▁loose": 7313,
      "▁bedside": 7314,
      "▁bento": 7315,
      "▁overalls": 7316,
      "▁bears,": 7317,
      "▁conven": 7318,
      "▁umbrellas,": 7319,
      "▁alt": 7320,
      "▁almon": 7321,
      "▁sli": 7322,
      "▁slal": 7323,
      "▁spraw": 7324,
      "▁banks": 7325,
      "▁diff": 7326,
      "▁soars": 7327,
      "▁mount": 7328,
      "▁stovet": 7329,
      "▁sheeps": 7330,
      "▁sunflower": 7331,
      "▁coral": 7332,
      "▁them,": 7333,
      "▁luggage,": 7334,
      "▁shovel": 7335,
      "▁pots,": 7336,
      "▁smiling,": 7337,
      "▁curls": 7338,
      "▁canned": 7339,
      "▁purses": 7340,
      "▁amen": 7341,
      "▁slices,": 7342,
      "▁feature": 7343,
      "▁packaging": 7344,
      "▁locations": 7345,
      "▁bloom": 7346,
      "▁harley": 7347,
      "▁grate": 7348,
      "▁ceilings": 7349,
      "▁shelves,": 7350,
      "▁burg": 7351,
      "▁microphones": 7352,
      "▁celebratory": 7353,
      "▁freely": 7354,
      "uzzle": 7355,
      "▁radishes": 7356,
      "▁univers": 7357,
      "▁ribbons": 7358,
      "▁workspace": 7359,
      "▁bundles": 7360,
      "▁spinach,": 7361,
      "▁peaceful": 7362,
      "▁folks": 7363,
      "▁companion": 7364,
      "▁bison": 7365,
      "▁tripod": 7366,
      "▁robes": 7367,
      "▁celery,": 7368,
      "▁hawai": 7369,
      "▁cottage": 7370,
      "▁congratul": 7371,
      "▁pelicans": 7372,
      "▁discussion": 7373,
      "▁wreath": 7374,
      "▁allowed": 7375,
      "▁gestures": 7376,
      "▁navigating": 7377,
      "▁chatting": 7378,
      "▁welcome": 7379,
      "▁yawning": 7380,
      "▁trophy": 7381,
      "▁windmill": 7382,
      "▁preforming": 7383,
      "▁clydes": 7384,
      "▁swiftly": 7385,
      "dryer": 7386,
      "▁miscellaneous": 7387,
      "▁almonds": 7388,
      "creen": 7389,
      "my": 7390,
      "sk": 7391,
      "wag": 7392,
      "water": 7393,
      "ints": 7394,
      "inted": 7395,
      "itor": 7396,
      "▁wants": 7397,
      "held": 7398,
      "attended": 7399,
      "▁gummy": 7400,
      "▁lla": 7401,
      "raction": 7402,
      "▁neg": 7403,
      "▁cob": 7404,
      "▁effe": 7405,
      "▁beet": 7406,
      "▁beads": 7407,
      "▁vers": 7408,
      "undy": 7409,
      "▁bored": 7410,
      "▁lazy": 7411,
      "▁uphill": 7412,
      "▁out,": 7413,
      "▁mens": 7414,
      "▁picture,": 7415,
      "▁shearing": 7416,
      "▁horse's": 7417,
      "▁scall": 7418,
      "▁handmade": 7419,
      "▁livingroom": 7420,
      "▁banners": 7421,
      "▁sox": 7422,
      "ifier": 7423,
      "uffs": 7424,
      "acy": 7425,
      "ustr": 7426,
      "▁racers": 7427,
      "▁bottles,": 7428,
      "▁dinos": 7429,
      "▁monk": 7430,
      "▁homeless": 7431,
      "▁restaurant,": 7432,
      "▁planted": 7433,
      "▁half-p": 7434,
      "▁photographing": 7435,
      "▁exe": 7436,
      "▁pick-up": 7437,
      "olded": 7438,
      "▁pens,": 7439,
      "▁beaks": 7440,
      "▁catcher's": 7441,
      "▁facial": 7442,
      "bbled": 7443,
      "▁sailors": 7444,
      "▁swimmers": 7445,
      "tible": 7446,
      "▁overlook": 7447,
      "▁neath": 7448,
      "▁discs": 7449,
      "▁chef's": 7450,
      "▁commuters": 7451,
      "▁collie": 7452,
      "▁labels": 7453,
      "▁repres": 7454,
      "▁bits": 7455,
      "▁condiment": 7456,
      "▁buliding": 7457,
      "▁saddled": 7458,
      "▁pinned": 7459,
      "▁cheeses": 7460,
      "▁pancakes,": 7461,
      "▁elbow": 7462,
      "▁sneaker": 7463,
      "▁burned": 7464,
      "▁knitting": 7465,
      "-down": 7466,
      "▁badm": 7467,
      "▁attend": 7468,
      "▁parasailer": 7469,
      "▁fixes": 7470,
      "▁barbeque": 7471,
      "▁parasols": 7472,
      "▁horizontal": 7473,
      "▁marshm": 7474,
      "▁crumbs": 7475,
      "▁convertible": 7476,
      "▁diagonal": 7477,
      "▁pudding": 7478,
      "▁crooked": 7479,
      "▁quarters": 7480,
      "▁demol": 7481,
      "▁religious": 7482,
      "▁stovetop": 7483,
      "▁burgundy": 7484,
      "au": 7485,
      "das": 7486,
      "pipe": 7487,
      "▁sam": 7488,
      "▁ank": 7489,
      "▁mick": 7490,
      "▁galley": 7491,
      "▁toli": 7492,
      "unches": 7493,
      "ridge": 7494,
      "elines": 7495,
      "▁east": 7496,
      "▁roped": 7497,
      "▁parmes": 7498,
      "▁parlor": 7499,
      "▁chunks": 7500,
      "▁gras": 7501,
      "▁floored": 7502,
      "igns": 7503,
      "▁kitchenette": 7504,
      "▁boy's": 7505,
      "ief": 7506,
      "▁overview": 7507,
      "ential": 7508,
      "▁sand,": 7509,
      "▁glassware": 7510,
      "▁brownie": 7511,
      "▁handling": 7512,
      "▁bows": 7513,
      "▁bowls,": 7514,
      "▁racket,": 7515,
      "aces": 7516,
      "▁knight": 7517,
      "▁remain": 7518,
      "aki": 7519,
      "▁controlling": 7520,
      "▁cabs": 7521,
      "▁bottle,": 7522,
      "▁patient": 7523,
      "▁can't": 7524,
      "▁bark": 7525,
      "▁attraction": 7526,
      "▁raincoat": 7527,
      "▁numbered": 7528,
      "▁surrounds": 7529,
      "▁mats": 7530,
      "▁way\"": 7531,
      "ship": 7532,
      "▁stately": 7533,
      "▁scene,": 7534,
      "▁directs": 7535,
      "▁armchair": 7536,
      "▁beer,": 7537,
      "▁tanks": 7538,
      "▁phones,": 7539,
      "▁rooster": 7540,
      "▁hamster": 7541,
      "▁toddlers": 7542,
      "▁dollar": 7543,
      "▁visor": 7544,
      "▁milk,": 7545,
      "▁petals": 7546,
      "▁exha": 7547,
      "▁childs": 7548,
      "▁volks": 7549,
      "▁indicate": 7550,
      "▁booths": 7551,
      "▁sprayed": 7552,
      "▁dispens": 7553,
      "▁popular": 7554,
      "haw": 7555,
      "▁repairing": 7556,
      "▁movies": 7557,
      "▁defensive": 7558,
      "▁pilots": 7559,
      "▁automobiles": 7560,
      "▁contempl": 7561,
      "▁crochet": 7562,
      "▁era": 7563,
      "▁twigs": 7564,
      "▁vibr": 7565,
      "▁wonderful": 7566,
      "▁incred": 7567,
      "▁gnar": 7568,
      "▁silhouetted": 7569,
      "▁vessel": 7570,
      "▁cheek": 7571,
      "▁prair": 7572,
      "▁license": 7573,
      "▁velvet": 7574,
      "▁dinosaur": 7575,
      "▁parmesan": 7576,
      "-ey": 7577,
      "-top": 7578,
      "iel": 7579,
      "ogy": 7580,
      "vids": 7581,
      "▁bom": 7582,
      "▁poo": 7583,
      "▁cred": 7584,
      "rob": 7585,
      "▁gut": 7586,
      "▁linger": 7587,
      "▁mantel": 7588,
      "▁north": 7589,
      "▁sitting,": 7590,
      "ards": 7591,
      "▁cos": 7592,
      "▁eiff": 7593,
      "▁bearing": 7594,
      "▁beag": 7595,
      "▁beams": 7596,
      "ader": 7597,
      "▁via": 7598,
      "vern": 7599,
      "▁lace": 7600,
      "▁lavis": 7601,
      "▁upscale": 7602,
      "▁flush": 7603,
      "airs": 7604,
      "▁greens,": 7605,
      "ieval": 7606,
      "▁disp": 7607,
      "▁dishes,": 7608,
      "▁browns": 7609,
      "▁lighter": 7610,
      "▁scar": 7611,
      "▁score": 7612,
      "▁scaff": 7613,
      "▁handler": 7614,
      "▁spilled": 7615,
      "▁flour": 7616,
      "▁eachother": 7617,
      "▁filming": 7618,
      "▁offers": 7619,
      "▁goatee": 7620,
      "▁ocean,": 7621,
      "dog": 7622,
      "▁triangular": 7623,
      "▁mountain,": 7624,
      "▁arches": 7625,
      "▁union": 7626,
      "▁emo": 7627,
      "dering": 7628,
      "▁forehand": 7629,
      "▁cannot": 7630,
      "▁planters": 7631,
      "▁matches": 7632,
      "▁toothp": 7633,
      "▁uniform,": 7634,
      "▁platforms": 7635,
      "▁basement": 7636,
      "▁concer": 7637,
      "▁tipped": 7638,
      "▁profile": 7639,
      "▁towels,": 7640,
      "▁baker": 7641,
      "▁crash": 7642,
      "▁casually": 7643,
      "▁misty": 7644,
      "▁medieval": 7645,
      "▁leafs": 7646,
      "▁legos": 7647,
      "▁18": 7648,
      "▁nails": 7649,
      "▁icebox": 7650,
      "▁bandan": 7651,
      "▁cruising": 7652,
      "▁granola": 7653,
      "▁parachutes": 7654,
      "▁adorn": 7655,
      "▁detour": 7656,
      "▁needles": 7657,
      "▁activity": 7658,
      "posed": 7659,
      "▁cockpit": 7660,
      "▁spanning": 7661,
      "▁symbols": 7662,
      "▁socializing": 7663,
      "▁browsing": 7664,
      "▁chalkboard": 7665,
      "▁dolly": 7666,
      "▁duffel": 7667,
      "▁searching": 7668,
      "▁barricade": 7669,
      "▁normal": 7670,
      "▁gigantic": 7671,
      "▁parsley": 7672,
      "▁skeleton": 7673,
      "▁half-pipe": 7674,
      "▁mickey": 7675,
      "▁toliet": 7676,
      "▁prairie": 7677,
      "vidson": 7678,
      "▁eiffel": 7679,
      "▁lavish": 7680,
      ":3": 7681,
      "dar": 7682,
      "eding": 7683,
      "gus": 7684,
      "port": 7685,
      "▁$": 7686,
      "inis": 7687,
      "▁tells": 7688,
      "▁sen": 7689,
      "▁occ": 7690,
      "itol": 7691,
      "▁cyl": 7692,
      "▁mal": 7693,
      "▁hoo": 7694,
      "▁hugs": 7695,
      "▁dw": 7696,
      "ometer": 7697,
      "organ": 7698,
      "▁ner": 7699,
      "▁whom": 7700,
      "olin": 7701,
      "▁table.": 7702,
      "▁choo": 7703,
      "ulture": 7704,
      "▁snow-": 7705,
      "▁given": 7706,
      "▁other's": 7707,
      "▁eatery": 7708,
      "▁compon": 7709,
      "▁ash": 7710,
      "▁spo": 7711,
      "▁tren": 7712,
      "▁switch": 7713,
      "▁offering": 7714,
      "▁cheer": 7715,
      "▁sales": 7716,
      "▁proc": 7717,
      "▁bike,": 7718,
      "▁embed": 7719,
      "▁keys,": 7720,
      "▁patches": 7721,
      "▁better": 7722,
      "▁hairdryer": 7723,
      "▁host": 7724,
      "▁wildflowers": 7725,
      "rung": 7726,
      "▁arranging": 7727,
      "▁toothbrush,": 7728,
      "▁quar": 7729,
      "▁masks": 7730,
      "▁cracker": 7731,
      "▁crop": 7732,
      "▁capitol": 7733,
      "▁ruler": 7734,
      "▁prim": 7735,
      "▁celebrate": 7736,
      "▁celebrates": 7737,
      "▁shakes": 7738,
      "▁auditor": 7739,
      "▁t-ball": 7740,
      "▁denim": 7741,
      "▁protect": 7742,
      "▁guards": 7743,
      "▁ordering": 7744,
      "▁await": 7745,
      "▁peanuts": 7746,
      "-cola": 7747,
      "▁majestic": 7748,
      "▁pigs": 7749,
      "▁donkeys": 7750,
      "▁member": 7751,
      "▁temple": 7752,
      "▁meatballs": 7753,
      "▁receiving": 7754,
      "▁bushels": 7755,
      "▁luxurious": 7756,
      "▁nibbling": 7757,
      "▁sidelines": 7758,
      "▁francis": 7759,
      "▁dingy": 7760,
      "works": 7761,
      "▁loveseat": 7762,
      "▁o'clock": 7763,
      "▁arabic": 7764,
      "▁bmw": 7765,
      "▁slalom": 7766,
      "▁hawaiian": 7767,
      "▁clydesdale": 7768,
      "▁vibrant": 7769,
      "▁auditorium": 7770,
      "▁francisco": 7771,
      "'re": 7772,
      "bla": 7773,
      "gate": 7774,
      "nd": 7775,
      "nuts": 7776,
      "with": 7777,
      "▁amp": 7778,
      "▁tips": 7779,
      "▁pins": 7780,
      "rested": 7781,
      "▁onward": 7782,
      "▁anten": 7783,
      "▁france": 7784,
      "▁mm": 7785,
      "▁hig": 7786,
      "▁dental": 7787,
      "▁gir": 7788,
      "▁toll": 7789,
      "▁tons": 7790,
      "▁stro": 7791,
      "unt": 7792,
      "▁manual": 7793,
      "rica": 7794,
      "▁necess": 7795,
      "▁pecking": 7796,
      "▁ec": 7797,
      "▁reco": 7798,
      "▁vw": 7799,
      "▁val": 7800,
      "▁doily": 7801,
      "▁yak": 7802,
      "▁graf": 7803,
      "▁person,": 7804,
      "ander": 7805,
      "stairs": 7806,
      "rang": 7807,
      "▁girl,": 7808,
      "▁waking": 7809,
      "▁always": 7810,
      "ously": 7811,
      "▁handrail": 7812,
      "▁swirl": 7813,
      "▁dives": 7814,
      "▁soil": 7815,
      "▁sodas": 7816,
      "▁big,": 7817,
      "▁headset": 7818,
      "▁wave,": 7819,
      "▁usa": 7820,
      "▁unattended": 7821,
      "▁corner,": 7822,
      "▁poll": 7823,
      "▁restaurants": 7824,
      "close": 7825,
      "▁runway,": 7826,
      "▁halfpipe": 7827,
      "▁expla": 7828,
      "▁\"g": 7829,
      "▁africa": 7830,
      "▁laps": 7831,
      "▁cellphone,": 7832,
      "▁placemat": 7833,
      "▁fenced-in": 7834,
      "▁ivy": 7835,
      "▁spoon,": 7836,
      "▁messages": 7837,
      "▁crashed": 7838,
      "▁freez": 7839,
      "▁discarded": 7840,
      "▁angles": 7841,
      "▁adjust": 7842,
      "▁transported": 7843,
      "▁cowboys": 7844,
      "▁aprons": 7845,
      "▁combined": 7846,
      "▁obstacles": 7847,
      "▁pops": 7848,
      "▁festive": 7849,
      "▁arrives": 7850,
      "▁maybe": 7851,
      "▁minutes": 7852,
      "▁collect": 7853,
      "▁cucumbers,": 7854,
      "▁limbs": 7855,
      "▁nowhere": 7856,
      "▁century": 7857,
      "▁boulder": 7858,
      "▁wallet,": 7859,
      "▁details": 7860,
      "rabilia": 7861,
      "▁mouses": 7862,
      "▁drums": 7863,
      "▁sampling": 7864,
      "▁address": 7865,
      "▁wildebeest": 7866,
      "▁teacher": 7867,
      "▁mcdonald": 7868,
      "▁leftover": 7869,
      "▁protruding": 7870,
      "▁memorabilia": 7871,
      "▁sprawled": 7872,
      "▁amenities": 7873,
      "▁badminton": 7874,
      "▁marshmallow": 7875,
      "▁volkswag": 7876,
      "▁beagle": 7877,
      "organized": 7878,
      "▁embedded": 7879,
      "-le": 7880,
      "-aged": 7881,
      "for": 7882,
      "ike": 7883,
      "kward": 7884,
      "▁tater": 7885,
      "▁testing": 7886,
      "▁sings": 7887,
      "▁bon": 7888,
      "ream": 7889,
      "▁mile": 7890,
      "▁munching": 7891,
      "▁hus": 7892,
      "unction": 7893,
      "▁effic": 7894,
      "▁rent": 7895,
      "▁kh": 7896,
      "▁doc": 7897,
      "▁womans": 7898,
      "▁ripped": 7899,
      "▁grows": 7900,
      "▁law": 7901,
      "▁raz": 7902,
      "▁rared": 7903,
      "▁sequ": 7904,
      "▁buoy": 7905,
      "▁jes": 7906,
      "▁pockets": 7907,
      "▁pizza's": 7908,
      "tles": 7909,
      "▁weight": 7910,
      "▁concept": 7911,
      "▁city,": 7912,
      "▁slat": 7913,
      "▁scot": 7914,
      "▁handstand": 7915,
      "▁diet": 7916,
      "▁envel": 7917,
      "▁hilltop": 7918,
      "▁stationed": 7919,
      "▁guides": 7920,
      "▁adding": 7921,
      "▁box,": 7922,
      "▁bags,": 7923,
      "▁track,": 7924,
      "▁bedroom,": 7925,
      "▁ordered": 7926,
      "▁booze": 7927,
      "shot": 7928,
      "▁photography": 7929,
      "▁breaded": 7930,
      "▁\"m": 7931,
      "▁rocks,": 7932,
      "▁penny": 7933,
      "▁notepad": 7934,
      "lender": 7935,
      "▁facade": 7936,
      "▁milks": 7937,
      "▁pitcher,": 7938,
      "▁speckled": 7939,
      "▁sailor": 7940,
      "▁flys": 7941,
      "▁creamy": 7942,
      "▁fav": 7943,
      "▁hotdog,": 7944,
      "▁cardinal": 7945,
      "▁circles": 7946,
      "▁naps": 7947,
      "▁stradd": 7948,
      "▁visiting": 7949,
      "▁medal": 7950,
      "▁rub": 7951,
      "▁starring": 7952,
      "▁charter": 7953,
      "▁davidson": 7954,
      "▁awkward": 7955,
      "▁copper": 7956,
      "▁observes": 7957,
      "▁billowing": 7958,
      "▁illustr": 7959,
      "▁cliffs": 7960,
      "appy": 7961,
      "urfing": 7962,
      "▁shutters": 7963,
      "▁clustered": 7964,
      "▁ostriches": 7965,
      "▁automatic": 7966,
      "▁nightstands": 7967,
      "▁billboards": 7968,
      "▁youths": 7969,
      "▁flavor": 7970,
      "▁grasslands": 7971,
      "foil": 7972,
      "▁woolly": 7973,
      "▁domed": 7974,
      "▁cabbage,": 7975,
      "▁missed": 7976,
      "▁coca-cola": 7977,
      "▁aiming": 7978,
      "▁purchase": 7979,
      "▁announ": 7980,
      "▁exercise": 7981,
      "▁hollywood": 7982,
      "▁university": 7983,
      "▁demolished": 7984,
      "▁credit": 7985,
      "▁concerned": 7986,
      "\n\n": 7987,
      ":1": 7988,
      "han": 7989,
      "lue": 7990,
      "pa": 7991,
      "rd": 7992,
      "ucc": 7993,
      "yon": 7994,
      "ydrant": 7995,
      "▁sed": 7996,
      "▁slo": 7997,
      "▁sipping": 7998,
      "▁option": 7999,
      "▁bris": 8000,
      "▁brun": 8001,
      "▁wife": 8002,
      "▁wades": 8003,
      "▁prist": 8004,
      "▁cds": 8005,
      "▁cuis": 8006,
      "▁moose": 8007,
      "▁witha": 8008,
      "▁hump": 8009,
      "▁date": 8010,
      "▁ditch": 8011,
      "▁manic": 8012,
      "▁netting": 8013,
      "oped": 8014,
      "elt": 8015,
      "olate": 8016,
      "▁peep": 8017,
      "▁peaches": 8018,
      "hern": 8019,
      "▁skim": 8020,
      "▁reigns": 8021,
      "▁holing": 8022,
      "▁paris": 8023,
      "▁shar": 8024,
      "antly": 8025,
      "▁flats": 8026,
      "▁outlet": 8027,
      "igned": 8028,
      "▁sele": 8029,
      "▁blvd": 8030,
      "▁young,": 8031,
      "▁jac": 8032,
      "▁hey": 8033,
      "▁intensely": 8034,
      "agna": 8035,
      "▁stocking": 8036,
      "▁sloped": 8037,
      "▁middle-aged": 8038,
      "▁lost": 8039,
      "▁looms": 8040,
      "▁long-haired": 8041,
      "▁breaks": 8042,
      "tened": 8043,
      "pect": 8044,
      "▁river,": 8045,
      "cedes": 8046,
      "▁mature": 8047,
      "▁cleaner": 8048,
      "▁clothes,": 8049,
      "▁feather": 8050,
      "▁shoes,": 8051,
      "▁globe": 8052,
      "▁stairwell": 8053,
      "▁cream,": 8054,
      "osk": 8055,
      "screen": 8056,
      "▁clause": 8057,
      "▁util": 8058,
      "iously": 8059,
      "▁ornately": 8060,
      "▁steaming": 8061,
      "▁fighters": 8062,
      "▁lids": 8063,
      "▁expos": 8064,
      "▁3d": 8065,
      "▁petted": 8066,
      "▁focal": 8067,
      "▁install": 8068,
      "uzzi": 8069,
      "▁sprays": 8070,
      "▁gazebo": 8071,
      "▁mattresses": 8072,
      "▁tinfoil": 8073,
      "▁orig": 8074,
      "▁friendly": 8075,
      "▁melting": 8076,
      "▁lobster": 8077,
      "▁seaside": 8078,
      "▁maple": 8079,
      "▁windsurfer": 8080,
      "▁alcoholic": 8081,
      "▁bloody": 8082,
      "▁ipad": 8083,
      "▁inspects": 8084,
      "▁sofas,": 8085,
      "▁peas,": 8086,
      "▁cocktail": 8087,
      "▁demonstrating": 8088,
      "▁croissants": 8089,
      "▁lasagna": 8090,
      "▁years": 8091,
      "▁detailed": 8092,
      "▁dolph": 8093,
      "▁amazing": 8094,
      "▁attachment": 8095,
      "▁converse": 8096,
      "▁technology": 8097,
      "▁abundance": 8098,
      "▁placid": 8099,
      "▁altitude": 8100,
      "▁dispensers": 8101,
      "▁razor": 8102,
      "▁jacuzzi": 8103,
      "-out": 8104,
      "▁'s": 8105,
      "▁arid": 8106,
      "▁song": 8107,
      "▁bru": 8108,
      "itive": 8109,
      "heye": 8110,
      "▁puffy": 8111,
      "lev": 8112,
      "▁inse": 8113,
      "▁ming": 8114,
      "▁did": 8115,
      "▁gum": 8116,
      "▁gay": 8117,
      "▁stab": 8118,
      "▁strung": 8119,
      "rack": 8120,
      "ont": 8121,
      "owed": 8122,
      "▁isn't": 8123,
      "▁nude": 8124,
      "opened": 8125,
      "ict": 8126,
      "▁pews": 8127,
      "▁skill": 8128,
      "▁ren": 8129,
      "▁plumb": 8130,
      "▁shield": 8131,
      "▁launching": 8132,
      "▁field.": 8133,
      "▁surg": 8134,
      "▁secl": 8135,
      "▁bubbles": 8136,
      "▁skaters": 8137,
      "▁pound": 8138,
      "▁motorists": 8139,
      "▁weed": 8140,
      "▁desolate": 8141,
      "▁sheering": 8142,
      "▁sheared": 8143,
      "▁zebra,": 8144,
      "▁boats,": 8145,
      "▁hands,": 8146,
      "▁fireworks": 8147,
      "▁swamp": 8148,
      "▁teh": 8149,
      "▁cows,": 8150,
      "▁filtered": 8151,
      "▁rack,": 8152,
      "▁wiim": 8153,
      "ipher": 8154,
      "▁restored": 8155,
      "▁unident": 8156,
      "▁hatch": 8157,
      "▁loads": 8158,
      "▁bicycle,": 8159,
      "▁peripher": 8160,
      "▁marine": 8161,
      "▁ages": 8162,
      "▁can,": 8163,
      "uded": 8164,
      "▁drink,": 8165,
      "▁ord": 8166,
      "▁face,": 8167,
      "▁rock,": 8168,
      "weed": 8169,
      "▁shown,": 8170,
      "▁exting": 8171,
      "▁hound": 8172,
      "▁picket": 8173,
      "▁flames": 8174,
      "blem": 8175,
      "▁pawing": 8176,
      "▁lapel": 8177,
      "capped": 8178,
      "▁takeout": 8179,
      "mingly": 8180,
      "▁seemingly": 8181,
      "▁onion,": 8182,
      "▁boxes,": 8183,
      "▁wraps": 8184,
      "▁artist": 8185,
      "▁stall,": 8186,
      "▁blenders": 8187,
      "▁winery": 8188,
      "covered": 8189,
      "▁says,": 8190,
      "▁interview": 8191,
      "▁extern": 8192,
      "▁seaweed": 8193,
      "▁sprinkle": 8194,
      "▁papers,": 8195,
      "▁waterskiing": 8196,
      "▁angels": 8197,
      "▁tuna": 8198,
      "▁onlooker": 8199,
      "▁serviced": 8200,
      "▁workshop": 8201,
      "▁warmly": 8202,
      "▁hungry": 8203,
      "▁strolling": 8204,
      "▁linked": 8205,
      "▁notebooks": 8206,
      "-dressed": 8207,
      "▁keeping": 8208,
      "▁attendant": 8209,
      "▁elaborately": 8210,
      "▁emerging": 8211,
      "▁kiosk": 8212,
      "▁satell": 8213,
      "▁competitor": 8214,
      "▁vict": 8215,
      "▁skew": 8216,
      "▁source": 8217,
      "▁occupied": 8218,
      "▁perfectly": 8219,
      "▁resemble": 8220,
      "▁para-sa": 8221,
      "▁fisheye": 8222,
      "▁remodel": 8223,
      "▁study": 8224,
      "▁apparent": 8225,
      "▁landscaping": 8226,
      "▁departing": 8227,
      "▁tilting": 8228,
      "▁spending": 8229,
      "▁prominent": 8230,
      "▁photoshopped": 8231,
      "▁scaffolding": 8232,
      "▁bandanna": 8233,
      "▁cuisine": 8234,
      "▁external": 8235,
      "0th": 8236,
      "away": 8237,
      "dor": 8238,
      "gons": 8239,
      "gien": 8240,
      "sive": 8241,
      "▁q": 8242,
      "▁tins": 8243,
      "▁slender": 8244,
      "ites": 8245,
      "▁want": 8246,
      "▁cider": 8247,
      "▁theat": 8248,
      "▁ans": 8249,
      "arat": 8250,
      "robe": 8251,
      "▁fond": 8252,
      "ism": 8253,
      "▁mari": 8254,
      "▁mint": 8255,
      "▁dut": 8256,
      "▁lu": 8257,
      "▁tots": 8258,
      "orite": 8259,
      "ass": 8260,
      "▁kore": 8261,
      "▁bod": 8262,
      "▁shipping": 8263,
      "▁chub": 8264,
      "▁chases": 8265,
      "▁charm": 8266,
      "▁flushing": 8267,
      "▁snake": 8268,
      "▁fronts": 8269,
      "▁budd": 8270,
      "▁build": 8271,
      "▁walking,": 8272,
      "▁heron": 8273,
      "▁wagons": 8274,
      "ppers": 8275,
      "▁pictures,": 8276,
      "▁slats": 8277,
      "▁handheld": 8278,
      "▁moved": 8279,
      "▁ener": 8280,
      "▁apparat": 8281,
      "▁hygien": 8282,
      "▁ridge": 8283,
      "▁guided": 8284,
      "▁unpack": 8285,
      "▁uneaten": 8286,
      "▁unopened": 8287,
      "▁clump": 8288,
      "▁acting": 8289,
      "▁acrob": 8290,
      "▁longboard": 8291,
      "▁passanger": 8292,
      "▁walk-in": 8293,
      "▁potty": 8294,
      "▁mono": 8295,
      "▁night,": 8296,
      "▁riverbank": 8297,
      "▁jetliners": 8298,
      "▁leaking": 8299,
      "▁rains": 8300,
      "▁screen,": 8301,
      "▁seat,": 8302,
      "▁battery": 8303,
      "▁brush,": 8304,
      "▁bridge,": 8305,
      "▁hairbrush": 8306,
      "onda": 8307,
      "▁countries": 8308,
      "▁shelf,": 8309,
      "▁cooker": 8310,
      "▁edible": 8311,
      "▁picturesque": 8312,
      "▁helmet,": 8313,
      "▁creme": 8314,
      "▁creature": 8315,
      "▁distorted": 8316,
      "▁drawings": 8317,
      "▁eggpl": 8318,
      "▁rounds": 8319,
      "▁crashes": 8320,
      "ucky": 8321,
      "▁mug,": 8322,
      "▁turb": 8323,
      "▁america": 8324,
      "▁streaming": 8325,
      "▁lemon,": 8326,
      "▁guitars": 8327,
      "▁prices": 8328,
      "▁infield": 8329,
      "▁prints": 8330,
      "▁parake": 8331,
      "▁gazes": 8332,
      "▁capture": 8333,
      "▁jerseys": 8334,
      "▁keeps": 8335,
      "▁possible": 8336,
      "▁tissues": 8337,
      "▁uk": 8338,
      "▁tattooed": 8339,
      "▁cuddled": 8340,
      "▁pineapple,": 8341,
      "▁fitted": 8342,
      "▁cotton": 8343,
      "▁butterflies": 8344,
      "-whe": 8345,
      "▁brussel": 8346,
      "▁assembled": 8347,
      "▁reveals": 8348,
      "▁receipt": 8349,
      "▁aqua": 8350,
      "▁fuel": 8351,
      "▁remodeling": 8352,
      "▁teammates": 8353,
      "▁concentrating": 8354,
      "▁etc": 8355,
      "▁dreary": 8356,
      "▁aerop": 8357,
      "▁proudly": 8358,
      "▁southwest": 8359,
      "▁incredible": 8360,
      "▁pooh": 8361,
      "▁senior": 8362,
      "▁husband": 8363,
      "▁jesus": 8364,
      "▁favorite": 8365,
      "▁pristine": 8366,
      "▁secluded": 8367,
      "▁extinguis": 8368,
      "▁chubby": 8369,
      "-made": 8370,
      ":4": 8371,
      "cars": 8372,
      "iing": 8373,
      "ires": 8374,
      "long": 8375,
      "ointed": 8376,
      "sian": 8377,
      "uary": 8378,
      "▁sin": 8379,
      "▁sum": 8380,
      "▁bol": 8381,
      "▁broom": 8382,
      "▁py": 8383,
      "▁pam": 8384,
      "▁cities": 8385,
      "▁cycling": 8386,
      "▁mul": 8387,
      "▁hips": 8388,
      "▁dv": 8389,
      "▁dell": 8390,
      "▁stark": 8391,
      "on't": 8392,
      "oring": 8393,
      "ooted": 8394,
      "igan": 8395,
      "▁bee": 8396,
      "▁doctor": 8397,
      "▁plug": 8398,
      "▁street\"": 8399,
      "▁shaker": 8400,
      "▁laz": 8401,
      "▁topless": 8402,
      "▁chase": 8403,
      "▁smas": 8404,
      "▁flu": 8405,
      "▁blackberry": 8406,
      "▁signpost": 8407,
      "▁jud": 8408,
      "▁juggling": 8409,
      "▁motif": 8410,
      "▁liber": 8411,
      "▁hero": 8412,
      "▁heating": 8413,
      "▁lecture": 8414,
      "▁overfl": 8415,
      "▁disgus": 8416,
      "▁rushing": 8417,
      "▁rumpled": 8418,
      "▁around,": 8419,
      "▁tap": 8420,
      "▁tagging": 8421,
      "▁spice": 8422,
      "▁spider": 8423,
      "▁colt": 8424,
      "▁dips": 8425,
      "▁chew": 8426,
      "▁feild": 8427,
      "▁saw": 8428,
      "▁baby,": 8429,
      "▁adv": 8430,
      "▁prom": 8431,
      "▁ago": 8432,
      "coln": 8433,
      "▁enclosure,": 8434,
      "▁bright,": 8435,
      "▁scenes": 8436,
      "▁sticky": 8437,
      "▁strikes": 8438,
      "▁common": 8439,
      "▁pavil": 8440,
      "spring": 8441,
      "▁creating": 8442,
      "▁doughnuts,": 8443,
      "▁gripping": 8444,
      "▁carrot,": 8445,
      "▁balding": 8446,
      "▁curtained": 8447,
      "▁curtains,": 8448,
      "▁backpack,": 8449,
      "▁crafting": 8450,
      "▁formations": 8451,
      "▁crock": 8452,
      "▁cap,": 8453,
      "▁joy": 8454,
      "▁antiques": 8455,
      "▁glide": 8456,
      "▁explo": 8457,
      "▁angled": 8458,
      "▁infront": 8459,
      "▁organic": 8460,
      "▁princess": 8461,
      "▁completing": 8462,
      "▁strand": 8463,
      "▁fatig": 8464,
      "▁eagerly": 8465,
      "▁tones": 8466,
      "▁hearty": 8467,
      "▁penguins": 8468,
      "▁related": 8469,
      "▁nuzzle": 8470,
      "▁pacifier": 8471,
      "▁investig": 8472,
      "▁201": 8473,
      "▁lipstick": 8474,
      "▁orchard": 8475,
      "▁gorilla": 8476,
      "▁poorly": 8477,
      "▁congregate": 8478,
      "▁rhinos": 8479,
      "▁maintained": 8480,
      "▁lantern": 8481,
      "▁collared": 8482,
      "▁version": 8483,
      "▁bomber": 8484,
      "▁dispos": 8485,
      "▁trench": 8486,
      "▁procession": 8487,
      "▁antenna": 8488,
      "▁flatscreen": 8489,
      "levard": 8490,
      "▁hygiene": 8491,
      ":5": 8492,
      "bear": 8493,
      "com": 8494,
      "gran": 8495,
      "girl": 8496,
      "game": 8497,
      "hn": 8498,
      "horn": 8499,
      "izz": 8500,
      "quit": 8501,
      "son": 8502,
      "zed": 8503,
      "▁tiling": 8504,
      "▁sche": 8505,
      "▁oars": 8506,
      "▁wade": 8507,
      "hell": 8508,
      "▁pome": 8509,
      "▁punch": 8510,
      "rees": 8511,
      "▁cri": 8512,
      "erature": 8513,
      "▁inser": 8514,
      "▁fr": 8515,
      "▁fills": 8516,
      "▁mam": 8517,
      "▁hate": 8518,
      "▁dying": 8519,
      "▁danc": 8520,
      "▁dummy": 8521,
      "onge": 8522,
      "asting": 8523,
      "oper": 8524,
      "changing": 8525,
      "upe": 8526,
      "▁ev": 8527,
      "▁trade": 8528,
      "▁dod": 8529,
      "▁plowing": 8530,
      "▁streetcar": 8531,
      "▁fired": 8532,
      "▁boar": 8533,
      "veled": 8534,
      "▁rivers": 8535,
      "▁cha": 8536,
      "▁chim": 8537,
      "▁chang": 8538,
      "▁chute": 8539,
      "▁larg": 8540,
      "▁flop": 8541,
      "▁outc": 8542,
      "▁seg": 8543,
      "▁seash": 8544,
      "ainted": 8545,
      "▁jail": 8546,
      "▁jala": 8547,
      "▁back,": 8548,
      "▁eleven": 8549,
      "▁hedges": 8550,
      "▁lets": 8551,
      "▁overh": 8552,
      "ented": 8553,
      "▁city's": 8554,
      "▁slight": 8555,
      "▁underwater": 8556,
      "▁fox": 8557,
      "▁spool": 8558,
      "▁firemen": 8559,
      "▁swit": 8560,
      "cco": 8561,
      "plash": 8562,
      "▁skylight": 8563,
      "▁drift": 8564,
      "angled": 8565,
      "▁animals,": 8566,
      "▁days": 8567,
      "▁clust": 8568,
      "▁additional": 8569,
      "acing": 8570,
      "▁slope,": 8571,
      "▁passage": 8572,
      "▁embank": 8573,
      "▁doubled": 8574,
      "rescent": 8575,
      "▁pot,": 8576,
      "▁tvs": 8577,
      "▁colorful,": 8578,
      "▁canyon": 8579,
      "▁panels": 8580,
      "▁attic": 8581,
      "▁rocket": 8582,
      "▁batteries": 8583,
      "▁hair,": 8584,
      "show": 8585,
      "▁multitude": 8586,
      "▁squad": 8587,
      "▁vases,": 8588,
      "thora": 8589,
      "▁trucks,": 8590,
      "▁quilted": 8591,
      "▁wrappers": 8592,
      "ension": 8593,
      "▁waiter": 8594,
      "▁smokes": 8595,
      "▁reflections": 8596,
      "▁hotdogs,": 8597,
      "▁signaling": 8598,
      "▁advertises": 8599,
      "▁modest": 8600,
      "▁minivan": 8601,
      "▁toasting": 8602,
      "▁spotless": 8603,
      "▁media": 8604,
      "mobile": 8605,
      "▁pedestrians,": 8606,
      "▁arrangements": 8607,
      "▁organiz": 8608,
      "hole": 8609,
      "▁potato,": 8610,
      "▁boulevard": 8611,
      "▁suspenders": 8612,
      "▁thought": 8613,
      "▁turkeys": 8614,
      "▁plethora": 8615,
      "▁pumps": 8616,
      "▁interested": 8617,
      "▁adorns": 8618,
      "▁pickles,": 8619,
      "▁speakers,": 8620,
      "▁coastline": 8621,
      "▁protesting": 8622,
      "▁provides": 8623,
      "▁crackers,": 8624,
      "▁rollerbla": 8625,
      "▁impress": 8626,
      "▁gravy,": 8627,
      "▁centered": 8628,
      "▁pressed": 8629,
      "▁confused": 8630,
      "▁traveler": 8631,
      "▁nurse": 8632,
      "▁protesters": 8633,
      "▁mercedes": 8634,
      "▁pallet": 8635,
      "▁citiz": 8636,
      "▁description": 8637,
      "▁temporary": 8638,
      "▁gazelles": 8639,
      "▁vertically": 8640,
      "▁violin": 8641,
      "▁mossy": 8642,
      "▁duffle": 8643,
      "▁gulls": 8644,
      "▁dangerous": 8645,
      "▁goblet": 8646,
      "▁crisp": 8647,
      "▁international": 8648,
      "▁firefighters": 8649,
      "▁checkerboard": 8650,
      "▁pretzel": 8651,
      "▁semi-truck": 8652,
      "▁motocross": 8653,
      "▁pleasant": 8654,
      "▁exec": 8655,
      "▁mcdonald's": 8656,
      "▁apparatus": 8657,
      "▁eggplant": 8658,
      "▁extinguisher": 8659,
      "▁pyram": 8660,
      "▁dvds": 8661,
      "▁lazily": 8662,
      "▁liberty": 8663,
      "▁overflowing": 8664,
      "▁pomegran": 8665,
      "▁seashore": 8666,
      "▁jalapen": 8667,
      "▁clusters": 8668,
      "dish": 8669,
      "hor": 8670,
      "hans": 8671,
      "lated": 8672,
      "ob": 8673,
      "pse": 8674,
      "press": 8675,
      "tw": 8676,
      "▁aj": 8677,
      "inations": 8678,
      "▁tu": 8679,
      "▁sking": 8680,
      "▁sip": 8681,
      "▁sony": 8682,
      "▁wars": 8683,
      "ances": 8684,
      "▁once": 8685,
      "atively": 8686,
      "is,": 8687,
      "▁merry": 8688,
      "▁honda": 8689,
      "▁dram": 8690,
      "▁gree": 8691,
      "▁gap": 8692,
      "rador": 8693,
      "▁isle": 8694,
      "▁nun": 8695,
      "▁nunch": 8696,
      "asy": 8697,
      "asion": 8698,
      "▁why": 8699,
      "erson": 8700,
      "▁ves": 8701,
      "▁vulture": 8702,
      "▁ken": 8703,
      "▁it.": 8704,
      "▁plus": 8705,
      "▁plans": 8706,
      "▁pliers": 8707,
      "▁bought": 8708,
      "▁shoot": 8709,
      "▁shares": 8710,
      "▁grains": 8711,
      "▁caring": 8712,
      "▁outer": 8713,
      "nished": 8714,
      "storm": 8715,
      "stool": 8716,
      "▁building's": 8717,
      "▁baseballs": 8718,
      "ctuary": 8719,
      "▁heat": 8720,
      "▁boat,": 8721,
      "▁photo,": 8722,
      "▁photos,": 8723,
      "▁sponge": 8724,
      "▁filmed": 8725,
      "▁traffic,": 8726,
      "▁hill,": 8727,
      "▁differently": 8728,
      "▁broke": 8729,
      "▁guarding": 8730,
      "▁unh": 8731,
      "▁loving": 8732,
      "▁knif": 8733,
      "▁snowy,": 8734,
      "▁highly": 8735,
      "▁walker": 8736,
      "▁march": 8737,
      "▁lady's": 8738,
      "▁patties": 8739,
      "▁barred": 8740,
      "▁him,": 8741,
      "▁lincoln": 8742,
      "▁players,": 8743,
      "esturing": 8744,
      "▁rain,": 8745,
      "weight": 8746,
      "▁exchanging": 8747,
      "▁hoses": 8748,
      "▁shoppers": 8749,
      "▁flame": 8750,
      "isters": 8751,
      "▁packet": 8752,
      "▁gears": 8753,
      "▁well-dressed": 8754,
      "▁curtain,": 8755,
      "▁clutching": 8756,
      "▁footp": 8757,
      "▁suitcases,": 8758,
      "▁lowered": 8759,
      "▁businessmen": 8760,
      "▁designated": 8761,
      "▁pepperon": 8762,
      "▁earphones": 8763,
      "▁accord": 8764,
      "▁jogging": 8765,
      "▁built-in": 8766,
      "▁nail": 8767,
      "▁ducklings": 8768,
      "▁venue": 8769,
      "▁finishes": 8770,
      "▁labrador": 8771,
      "▁avoid": 8772,
      "▁cigarettes": 8773,
      "▁owner's": 8774,
      "plate": 8775,
      "trucks": 8776,
      "▁blindf": 8777,
      "▁deter": 8778,
      "▁projected": 8779,
      "▁mayon": 8780,
      "▁tights": 8781,
      "▁rectangle": 8782,
      "▁fixings": 8783,
      "▁solitary": 8784,
      "▁cuddles": 8785,
      "▁antelopes": 8786,
      "▁sanctuary": 8787,
      "▁sprout": 8788,
      "▁pacific": 8789,
      "▁gorge": 8790,
      "▁drizzled": 8791,
      "▁zombie": 8792,
      "▁attacking": 8793,
      "▁wakeboard": 8794,
      "▁success": 8795,
      "▁sample": 8796,
      "▁exhaust": 8797,
      "▁lingerie": 8798,
      "▁quarter": 8799,
      "▁primitive": 8800,
      "▁options": 8801,
      "▁exposure": 8802,
      "▁ordinary": 8803,
      "▁satellite": 8804,
      "▁para-sailing": 8805,
      "▁apparently": 8806,
      "▁theatre": 8807,
      "▁pamph": 8808,
      "▁pavilion": 8809,
      "▁chimney": 8810,
      "▁embankment": 8811,
      "aign": 8812,
      "bre": 8813,
      "ci": 8814,
      "ila": 8815,
      "pm": 8816,
      "por": 8817,
      "sy": 8818,
      "xim": 8819,
      "▁binder": 8820,
      "▁civ": 8821,
      "▁cuck": 8822,
      "iser": 8823,
      "▁hope": 8824,
      "▁gho": 8825,
      "▁gesturing": 8826,
      "▁sta": 8827,
      "ows": 8828,
      "▁nets": 8829,
      "asa": 8830,
      "ilts": 8831,
      "elled": 8832,
      "ota": 8833,
      "▁whale": 8834,
      "uristic": 8835,
      "▁twisted": 8836,
      "about": 8837,
      "▁vig": 8838,
      "ffod": 8839,
      "▁frol": 8840,
      "verted": 8841,
      "▁shr": 8842,
      "▁lag": 8843,
      "▁chunk": 8844,
      "▁cats,": 8845,
      "amole": 8846,
      "▁ups": 8847,
      "▁upcoming": 8848,
      "▁snowmobile": 8849,
      "▁reddish": 8850,
      "▁herb": 8851,
      "▁likes": 8852,
      "▁boys,": 8853,
      "▁skiies": 8854,
      "▁capp": 8855,
      "▁cape": 8856,
      "▁she's": 8857,
      "▁child,": 8858,
      "▁intent": 8859,
      "▁tale": 8860,
      "▁bowtie": 8861,
      "▁filing": 8862,
      "▁cutout": 8863,
      "▁birdhouse": 8864,
      "▁cheering": 8865,
      "▁dirt,": 8866,
      "▁stand,": 8867,
      "teen": 8868,
      "▁dressers": 8869,
      "acamole": 8870,
      "▁corrid": 8871,
      "▁crowding": 8872,
      "▁children,": 8873,
      "▁perh": 8874,
      "▁curl": 8875,
      "▁montage": 8876,
      "▁canes": 8877,
      "▁house,": 8878,
      "▁drinks,": 8879,
      "▁plants,": 8880,
      "closure": 8881,
      "▁resp": 8882,
      "▁suitcase,": 8883,
      "▁statute": 8884,
      "▁purple,": 8885,
      "▁expen": 8886,
      "▁chocolate,": 8887,
      "▁assisting": 8888,
      "▁clear,": 8889,
      "▁bikes,": 8890,
      "▁shorts,": 8891,
      "▁created": 8892,
      "rical": 8893,
      "▁washes": 8894,
      "▁gear,": 8895,
      "▁padded": 8896,
      "▁wrink": 8897,
      "▁straps": 8898,
      "▁bikinis": 8899,
      "▁casts": 8900,
      "▁piercing": 8901,
      "▁railings": 8902,
      "▁ruff": 8903,
      "▁speedboat": 8904,
      "bike": 8905,
      "▁dawn": 8906,
      "▁daffod": 8907,
      "▁magnifying": 8908,
      "▁cookies,": 8909,
      "▁brings": 8910,
      "▁brake": 8911,
      "▁calmly": 8912,
      "▁thicket": 8913,
      "▁describ": 8914,
      "▁uncom": 8915,
      "▁keeper": 8916,
      "▁kayaking": 8917,
      "▁eighteen": 8918,
      "▁campus": 8919,
      "▁gymnas": 8920,
      "▁vacation": 8921,
      "▁privacy": 8922,
      "▁knobs": 8923,
      "▁well-lit": 8924,
      "▁autograph": 8925,
      "▁fisher": 8926,
      "▁zucchini,": 8927,
      "▁teammate": 8928,
      "▁blossom": 8929,
      "▁sucking": 8930,
      "▁goblets": 8931,
      "▁lava": 8932,
      "▁obscured": 8933,
      "▁novelty": 8934,
      "▁connecting": 8935,
      "▁australia": 8936,
      "▁thermometer": 8937,
      "▁llama": 8938,
      "hawk": 8939,
      "▁occasion": 8940,
      "▁components": 8941,
      "▁marshmallows": 8942,
      "▁plumbing": 8943,
      "▁wiimote": 8944,
      "▁victory": 8945,
      "▁fatigues": 8946,
      "▁scheme": 8947,
      "▁cuckoo": 8948,
      "▁ghost": 8949,
      "▁corridor": 8950,
      "▁gymnasium": 8951,
      "-to": 8952,
      "-lit": 8953,
      ".a": 8954,
      "aul": 8955,
      "aled": 8956,
      "bus": 8957,
      "ued": 8958,
      "y,": 8959,
      "▁eth": 8960,
      "▁ale": 8961,
      "▁aside": 8962,
      "▁active": 8963,
      "▁sugg": 8964,
      "ita": 8965,
      "▁wan": 8966,
      "▁wilted": 8967,
      "▁pest": 8968,
      "eria": 8969,
      "ata": 8970,
      "▁ink": 8971,
      "▁fra": 8972,
      "▁der": 8973,
      "▁loll": 8974,
      "▁st.\"": 8975,
      "omet": 8976,
      "▁manu": 8977,
      "chment": 8978,
      "ella": 8979,
      "utton": 8980,
      "ida": 8981,
      "▁atm": 8982,
      "▁evil": 8983,
      "▁ith": 8984,
      "▁rich": 8985,
      "▁parchment": 8986,
      "▁upstairs": 8987,
      "▁snoo": 8988,
      "uly": 8989,
      "keep": 8990,
      "seeing": 8991,
      "▁signed": 8992,
      "▁bucking": 8993,
      "▁youngster": 8994,
      "▁foodst": 8995,
      "▁pizzeria": 8996,
      "▁pouch": 8997,
      "▁backward": 8998,
      "irts": 8999,
      "▁wares": 9000,
      "▁disorganized": 9001,
      "▁motorcyle": 9002,
      "▁scrol": 9003,
[...]
